#ifndef FOLD5_MODEL_DATA_H
#define FOLD5_MODEL_DATA_H

unsigned char fold5_model[] = {
  0x20, 0x00, 0x00, 0x00, 0x54, 0x46, 0x4c, 0x33, 0x00, 0x00, 0x00, 0x00,
  0x14, 0x00, 0x20, 0x00, 0x1c, 0x00, 0x18, 0x00, 0x14, 0x00, 0x10, 0x00,
  0x0c, 0x00, 0x00, 0x00, 0x08, 0x00, 0x04, 0x00, 0x14, 0x00, 0x00, 0x00,
  0x1c, 0x00, 0x00, 0x00, 0x8c, 0x00, 0x00, 0x00, 0xe4, 0x00, 0x00, 0x00,
  0xf4, 0x24, 0x00, 0x00, 0x04, 0x25, 0x00, 0x00, 0xf4, 0x38, 0x00, 0x00,
  0x03, 0x00, 0x00, 0x00, 0x01, 0x00, 0x00, 0x00, 0x04, 0x00, 0x00, 0x00,
  0xd6, 0xd9, 0xff, 0xff, 0x0c, 0x00, 0x00, 0x00, 0x1c, 0x00, 0x00, 0x00,
  0x40, 0x00, 0x00, 0x00, 0x0f, 0x00, 0x00, 0x00, 0x73, 0x65, 0x72, 0x76,
  0x69, 0x6e, 0x67, 0x5f, 0x64, 0x65, 0x66, 0x61, 0x75, 0x6c, 0x74, 0x00,
  0x01, 0x00, 0x00, 0x00, 0x04, 0x00, 0x00, 0x00, 0x90, 0xff, 0xff, 0xff,
  0x14, 0x00, 0x00, 0x00, 0x04, 0x00, 0x00, 0x00, 0x0e, 0x00, 0x00, 0x00,
  0x71, 0x75, 0x61, 0x6e, 0x74, 0x5f, 0x64, 0x65, 0x6e, 0x73, 0x65, 0x5f,
  0x31, 0x34, 0x00, 0x00, 0x01, 0x00, 0x00, 0x00, 0x04, 0x00, 0x00, 0x00,
  0xe6, 0xda, 0xff, 0xff, 0x04, 0x00, 0x00, 0x00, 0x0b, 0x00, 0x00, 0x00,
  0x66, 0x6f, 0x76, 0x65, 0x61, 0x5f, 0x69, 0x6e, 0x70, 0x75, 0x74, 0x00,
  0x02, 0x00, 0x00, 0x00, 0x34, 0x00, 0x00, 0x00, 0x04, 0x00, 0x00, 0x00,
  0xdc, 0xff, 0xff, 0xff, 0x17, 0x00, 0x00, 0x00, 0x04, 0x00, 0x00, 0x00,
  0x13, 0x00, 0x00, 0x00, 0x43, 0x4f, 0x4e, 0x56, 0x45, 0x52, 0x53, 0x49,
  0x4f, 0x4e, 0x5f, 0x4d, 0x45, 0x54, 0x41, 0x44, 0x41, 0x54, 0x41, 0x00,
  0x08, 0x00, 0x0c, 0x00, 0x08, 0x00, 0x04, 0x00, 0x08, 0x00, 0x00, 0x00,
  0x16, 0x00, 0x00, 0x00, 0x04, 0x00, 0x00, 0x00, 0x13, 0x00, 0x00, 0x00,
  0x6d, 0x69, 0x6e, 0x5f, 0x72, 0x75, 0x6e, 0x74, 0x69, 0x6d, 0x65, 0x5f,
  0x76, 0x65, 0x72, 0x73, 0x69, 0x6f, 0x6e, 0x00, 0x18, 0x00, 0x00, 0x00,
  0x0c, 0x24, 0x00, 0x00, 0x04, 0x24, 0x00, 0x00, 0xec, 0x23, 0x00, 0x00,
  0x4c, 0x23, 0x00, 0x00, 0xfc, 0x22, 0x00, 0x00, 0xf4, 0x22, 0x00, 0x00,
  0xec, 0x22, 0x00, 0x00, 0xdc, 0x19, 0x00, 0x00, 0x8c, 0x19, 0x00, 0x00,
  0x84, 0x19, 0x00, 0x00, 0x7c, 0x19, 0x00, 0x00, 0x74, 0x19, 0x00, 0x00,
  0xe4, 0x02, 0x00, 0x00, 0xac, 0x02, 0x00, 0x00, 0xa4, 0x02, 0x00, 0x00,
  0xf4, 0x01, 0x00, 0x00, 0xa4, 0x01, 0x00, 0x00, 0x9c, 0x01, 0x00, 0x00,
  0xdc, 0x00, 0x00, 0x00, 0xa0, 0x00, 0x00, 0x00, 0x98, 0x00, 0x00, 0x00,
  0x90, 0x00, 0x00, 0x00, 0x70, 0x00, 0x00, 0x00, 0x04, 0x00, 0x00, 0x00,
  0xbe, 0xdb, 0xff, 0xff, 0x04, 0x00, 0x00, 0x00, 0x5c, 0x00, 0x00, 0x00,
  0x0c, 0x00, 0x00, 0x00, 0x08, 0x00, 0x0e, 0x00, 0x08, 0x00, 0x04, 0x00,
  0x08, 0x00, 0x00, 0x00, 0x10, 0x00, 0x00, 0x00, 0x2c, 0x00, 0x00, 0x00,
  0x00, 0x00, 0x06, 0x00, 0x08, 0x00, 0x04, 0x00, 0x06, 0x00, 0x00, 0x00,
  0x04, 0x00, 0x00, 0x00, 0x02, 0x00, 0x00, 0x00, 0xeb, 0x03, 0x00, 0x00,
  0xd0, 0x07, 0x00, 0x00, 0x00, 0x00, 0x0a, 0x00, 0x10, 0x00, 0x0c, 0x00,
  0x08, 0x00, 0x04, 0x00, 0x0a, 0x00, 0x00, 0x00, 0x02, 0x00, 0x00, 0x00,
  0x02, 0x00, 0x00, 0x00, 0x04, 0x00, 0x00, 0x00, 0x06, 0x00, 0x00, 0x00,
  0x32, 0x2e, 0x31, 0x35, 0x2e, 0x30, 0x00, 0x00, 0x26, 0xdc, 0xff, 0xff,
  0x04, 0x00, 0x00, 0x00, 0x10, 0x00, 0x00, 0x00, 0x31, 0x2e, 0x31, 0x34,
  0x2e, 0x30, 0x00, 0x00, 0x00, 0x00, 0x00, 0x00, 0x00, 0x00, 0x00, 0x00,
  0xc0, 0xc9, 0xff, 0xff, 0xc4, 0xc9, 0xff, 0xff, 0x4a, 0xdc, 0xff, 0xff,
  0x04, 0x00, 0x00, 0x00, 0x2c, 0x00, 0x00, 0x00, 0x57, 0xe8, 0xff, 0xff,
  0xaa, 0xf4, 0xff, 0xff, 0x93, 0xec, 0xff, 0xff, 0x02, 0xec, 0xff, 0xff,
  0x24, 0xf9, 0xff, 0xff, 0x89, 0xfb, 0xff, 0xff, 0xa9, 0xf5, 0xff, 0xff,
  0x87, 0xeb, 0xff, 0xff, 0xa8, 0xf1, 0xff, 0xff, 0xfd, 0xe6, 0xff, 0xff,
  0x8f, 0xf9, 0xff, 0xff, 0x82, 0xdc, 0xff, 0xff, 0x04, 0x00, 0x00, 0x00,
  0xb0, 0x00, 0x00, 0x00, 0x41, 0xe4, 0xee, 0x15, 0xfa, 0x1f, 0xf6, 0xee,
  0x12, 0xcc, 0x05, 0xed, 0x1e, 0xf3, 0x01, 0xd9, 0xf4, 0x06, 0xe1, 0x11,
  0x0e, 0x06, 0xf0, 0x2c, 0x18, 0xff, 0xef, 0xf3, 0xde, 0xec, 0xfb, 0xdd,
  0x43, 0x08, 0x11, 0x0d, 0x13, 0xff, 0xf4, 0xec, 0x1b, 0xc1, 0xe8, 0xef,
  0x29, 0xe9, 0x00, 0xda, 0xda, 0x09, 0x18, 0x13, 0xc6, 0x5f, 0xf6, 0x42,
  0x16, 0xbc, 0x40, 0xed, 0x2c, 0xef, 0x02, 0xd8, 0xf3, 0x08, 0xeb, 0x11,
  0x0a, 0x0b, 0xf7, 0x2d, 0x18, 0xf3, 0xf3, 0xed, 0xeb, 0xed, 0x01, 0xd8,
  0x34, 0xd2, 0xdd, 0x0e, 0xd7, 0x4c, 0xd4, 0xf9, 0x1a, 0xfb, 0x2d, 0x11,
  0xe2, 0xeb, 0xdd, 0xf2, 0xf3, 0x11, 0x0c, 0x1b, 0x11, 0x02, 0xd4, 0x2e,
  0x0f, 0xe9, 0xeb, 0x13, 0xf6, 0xf6, 0xdc, 0xf4, 0x34, 0xcc, 0xdd, 0x7f,
  0xcf, 0x57, 0xf5, 0xf8, 0xbc, 0xcd, 0x38, 0xee, 0x1b, 0x55, 0x02, 0xda,
  0x2f, 0x0b, 0x14, 0x70, 0x0e, 0x05, 0xd1, 0xfd, 0xc6, 0xc1, 0xed, 0x16,
  0x28, 0x48, 0xd9, 0xf6, 0x2a, 0x01, 0x01, 0x51, 0x08, 0x0d, 0xe4, 0x03,
  0xe2, 0xcd, 0xf6, 0x01, 0x17, 0x2a, 0xed, 0xe7, 0xe7, 0x09, 0xe3, 0x72,
  0x07, 0x0f, 0xdf, 0x38, 0xc6, 0xfb, 0xf7, 0x08, 0xe2, 0x4b, 0xe7, 0xec,
  0xbc, 0xca, 0xff, 0xff, 0x42, 0xdd, 0xff, 0xff, 0x04, 0x00, 0x00, 0x00,
  0x40, 0x00, 0x00, 0x00, 0xb8, 0xff, 0xff, 0xff, 0x5e, 0x07, 0x00, 0x00,
  0x23, 0xfe, 0xff, 0xff, 0xdc, 0xff, 0xff, 0xff, 0xef, 0x01, 0x00, 0x00,
  0x49, 0xfe, 0xff, 0xff, 0x08, 0xfe, 0xff, 0xff, 0x7b, 0x00, 0x00, 0x00,
  0x7e, 0x00, 0x00, 0x00, 0xd1, 0xff, 0xff, 0xff, 0xe7, 0xfe, 0xff, 0xff,
  0x84, 0x02, 0x00, 0x00, 0xfb, 0xff, 0xff, 0xff, 0xd9, 0xff, 0xff, 0xff,
  0x67, 0xfd, 0xff, 0xff, 0xc4, 0x03, 0x00, 0x00, 0x8e, 0xdd, 0xff, 0xff,
  0x04, 0x00, 0x00, 0x00, 0xa0, 0x00, 0x00, 0x00, 0xf1, 0xff, 0x01, 0x04,
  0xbc, 0x02, 0xb8, 0x02, 0xfd, 0xfc, 0xf7, 0xfd, 0x03, 0x36, 0x52, 0xfd,
  0x2e, 0xfd, 0xd2, 0xc8, 0xc7, 0xfa, 0x05, 0x09, 0x32, 0x08, 0xfa, 0x07,
  0xf8, 0x85, 0xf2, 0x48, 0xc8, 0xff, 0x07, 0x01, 0x00, 0x01, 0x01, 0x08,
  0x10, 0x02, 0xfe, 0x69, 0xfa, 0x00, 0xfe, 0xff, 0xa4, 0xf6, 0xf4, 0xfd,
  0x02, 0xae, 0x02, 0x00, 0x03, 0x01, 0x47, 0x08, 0xdd, 0xf8, 0x07, 0x03,
  0xf8, 0x9a, 0x1b, 0xa5, 0x00, 0x0f, 0x14, 0x01, 0xfe, 0xfb, 0x53, 0xfd,
  0x59, 0xfe, 0x04, 0x05, 0x10, 0xaa, 0x43, 0x01, 0xf7, 0xfe, 0x01, 0xfe,
  0xff, 0xf7, 0x6d, 0xfc, 0x03, 0x06, 0xf8, 0x05, 0x1b, 0x03, 0xfc, 0x46,
  0xf3, 0xfe, 0x01, 0xa5, 0x04, 0x00, 0x03, 0x01, 0x50, 0x0a, 0x1e, 0x09,
  0xf8, 0x00, 0x08, 0x5f, 0xeb, 0x55, 0x01, 0xf2, 0xa3, 0x04, 0xfe, 0xfb,
  0x04, 0xfb, 0xe8, 0xfc, 0x05, 0xc8, 0xf2, 0x4c, 0xc5, 0x00, 0x08, 0x02,
  0x00, 0x01, 0x00, 0x09, 0xe2, 0xf8, 0x07, 0x00, 0xf9, 0xa3, 0x17, 0xad,
  0x00, 0x0e, 0x28, 0x0e, 0xf3, 0xff, 0x0c, 0x7f, 0xe3, 0x71, 0x01, 0xf0,
  0xb8, 0xcb, 0xff, 0xff, 0x3e, 0xde, 0xff, 0xff, 0x04, 0x00, 0x00, 0x00,
  0x28, 0x00, 0x00, 0x00, 0xe6, 0x01, 0x00, 0x00, 0x28, 0xf6, 0xff, 0xff,
  0xb7, 0x0b, 0x00, 0x00, 0xbf, 0x09, 0x00, 0x00, 0x26, 0x01, 0x00, 0x00,
  0x95, 0xff, 0xff, 0xff, 0x4a, 0xfe, 0xff, 0xff, 0xec, 0xff, 0xff, 0xff,
  0x73, 0xf4, 0xff, 0xff, 0x03, 0x03, 0x00, 0x00, 0x72, 0xde, 0xff, 0xff,
  0x04, 0x00, 0x00, 0x00, 0x80, 0x16, 0x00, 0x00, 0x1b, 0xf2, 0x21, 0x12,
  0xeb, 0xe4, 0x01, 0xf4, 0x0c, 0xda, 0x00, 0xfc, 0x36, 0xec, 0x25, 0x13,
  0xfe, 0xfb, 0x31, 0xf0, 0x04, 0xf8, 0x08, 0xfd, 0x1f, 0xe6, 0xfb, 0xfe,
  0x19, 0x14, 0x11, 0xdf, 0x08, 0x06, 0xf4, 0xf0, 0x16, 0xf3, 0xfd, 0xf2,
  0x1f, 0x06, 0xef, 0xf8, 0xe0, 0x0e, 0xf9, 0x13, 0xff, 0x04, 0x1e, 0xf1,
  0x26, 0xf0, 0x0f, 0xff, 0x1e, 0x00, 0xf5, 0xea, 0xe5, 0xf0, 0x01, 0x07,
  0xea, 0x04, 0x1d, 0x08, 0x04, 0xfc, 0xfc, 0xeb, 0x10, 0xd8, 0xfe, 0xf5,
  0xe0, 0xf7, 0x12, 0xf8, 0x09, 0xfe, 0xf9, 0xee, 0x10, 0x15, 0xd4, 0xe8,
  0x27, 0x06, 0x1a, 0x13, 0xf9, 0xfc, 0x1e, 0xf9, 0xf5, 0x0d, 0x28, 0x07,
  0xf7, 0x10, 0xec, 0x07, 0x13, 0xf1, 0x13, 0xf3, 0xeb, 0xed, 0x15, 0xec,
  0xfc, 0xf8, 0x06, 0x0e, 0x06, 0xed, 0xf7, 0x06, 0x2b, 0xf2, 0x08, 0xfa,
  0xfa, 0xf8, 0x00, 0xe0, 0x01, 0xfd, 0x08, 0x1a, 0xf2, 0xf7, 0x02, 0xe1,
  0x14, 0xf9, 0x01, 0xe4, 0xe3, 0xff, 0xf8, 0xe3, 0xf7, 0xee, 0x10, 0x1c,
  0xf8, 0xfd, 0xfc, 0xfa, 0x11, 0xfc, 0xff, 0xf2, 0xf5, 0xfd, 0x24, 0xeb,
  0xf9, 0xf7, 0x09, 0x0c, 0x09, 0xeb, 0x1b, 0xf6, 0x1a, 0x03, 0xe6, 0xfc,
  0x0a, 0x06, 0x1f, 0xe4, 0xf2, 0x13, 0x1c, 0xf9, 0xfc, 0x00, 0xf0, 0xef,
  0x39, 0xcc, 0x0c, 0xfd, 0xf5, 0x03, 0x1e, 0xe7, 0x27, 0xf5, 0x13, 0xd1,
  0x1a, 0xe8, 0xf9, 0xf3, 0x0c, 0x02, 0xf9, 0xe4, 0x07, 0xfd, 0xfe, 0xe2,
  0x09, 0xfa, 0x1c, 0x04, 0x0b, 0xfe, 0xec, 0x11, 0x12, 0xf6, 0xff, 0xfc,
  0xfb, 0x03, 0x0a, 0xef, 0x0e, 0x0a, 0x06, 0x08, 0xfb, 0xef, 0x12, 0xff,
  0x1a, 0xf9, 0x0c, 0xf3, 0xf4, 0xf6, 0x13, 0xe9, 0xed, 0x04, 0xf9, 0x0d,
  0x0a, 0xe9, 0x12, 0xff, 0x0b, 0xf7, 0x00, 0x05, 0xf7, 0x0e, 0x07, 0x0e,
  0xff, 0x04, 0xfb, 0x23, 0xdf, 0xe3, 0x03, 0xf3, 0x12, 0x1b, 0x04, 0xfc,
  0xfe, 0x0b, 0xff, 0x04, 0xf8, 0x10, 0xf1, 0x04, 0x0e, 0xfb, 0xe6, 0xf4,
  0x14, 0x1d, 0xfe, 0xff, 0xd6, 0xfe, 0xee, 0x04, 0x07, 0xee, 0x00, 0xec,
  0x29, 0x07, 0x0d, 0x03, 0x21, 0xf4, 0x0b, 0x02, 0xff, 0xfa, 0xea, 0xdf,
  0xea, 0xf8, 0xff, 0xff, 0x13, 0xf1, 0xe9, 0x0f, 0x1a, 0xf8, 0x0a, 0xfb,
  0x12, 0xff, 0x0c, 0xfc, 0xf2, 0xfb, 0x06, 0x0b, 0x05, 0xf1, 0xf1, 0xf5,
  0x1b, 0xfc, 0x18, 0x00, 0x10, 0xf7, 0x01, 0x0e, 0xf7, 0xf6, 0xfa, 0xfa,
  0xe6, 0xf9, 0x0b, 0xf6, 0x17, 0x0b, 0x04, 0xfe, 0x11, 0xf8, 0x01, 0x09,
  0xe7, 0xfa, 0xef, 0x13, 0xe8, 0xf3, 0x1e, 0xee, 0x03, 0x09, 0xf9, 0xff,
  0xf5, 0x00, 0xf9, 0x09, 0x10, 0x0b, 0x04, 0xf6, 0x13, 0xfa, 0x0d, 0x02,
  0x11, 0x02, 0x0a, 0x09, 0x00, 0x19, 0x03, 0x1a, 0xfa, 0x03, 0x02, 0xcd,
  0x01, 0xe4, 0x11, 0xf3, 0x06, 0x05, 0x28, 0x0f, 0x13, 0x05, 0xcf, 0xf7,
  0xfa, 0x09, 0xff, 0xde, 0x09, 0xe0, 0x04, 0xf1, 0x17, 0x3a, 0x17, 0xfa,
  0x13, 0x05, 0xdd, 0x12, 0x14, 0x10, 0xfa, 0xf0, 0x00, 0xf9, 0x09, 0xee,
  0x11, 0x0d, 0x18, 0xf6, 0x04, 0xfb, 0x05, 0x28, 0xfd, 0xfd, 0x17, 0xe8,
  0xee, 0xfa, 0x20, 0xeb, 0x1f, 0x09, 0x1b, 0xee, 0x09, 0xfe, 0x0b, 0x1b,
  0xfc, 0x03, 0x03, 0xfa, 0xdf, 0xf3, 0x35, 0xd7, 0x04, 0x13, 0x10, 0xee,
  0x0a, 0x09, 0xf7, 0x28, 0xf2, 0xfd, 0xea, 0xe2, 0xd5, 0x10, 0x25, 0xf5,
  0x17, 0x05, 0x07, 0xfa, 0xf5, 0x13, 0xfc, 0x20, 0xe3, 0x01, 0xfc, 0xca,
  0xd5, 0xeb, 0x0a, 0xf1, 0x2d, 0x02, 0x22, 0x10, 0x19, 0xfb, 0xf6, 0xea,
  0xe7, 0x0a, 0xf1, 0xea, 0xe5, 0xfa, 0x0e, 0xe9, 0x0f, 0x3f, 0x29, 0xf5,
  0x3a, 0xf4, 0xd4, 0xe9, 0xde, 0x08, 0xea, 0xe2, 0xdb, 0xf5, 0x08, 0xf3,
  0x0f, 0x1e, 0x0b, 0xf1, 0xff, 0x00, 0x01, 0x05, 0xf6, 0x02, 0x02, 0xe6,
  0xdd, 0xe7, 0x17, 0xf8, 0x1e, 0xee, 0x0c, 0x03, 0x20, 0x02, 0xf8, 0xf6,
  0xed, 0xef, 0xe6, 0xf5, 0xd9, 0xf5, 0x05, 0xe0, 0x1a, 0x06, 0x06, 0xfb,
  0x17, 0xfd, 0xfd, 0xfb, 0xf3, 0xf8, 0x00, 0xec, 0xce, 0xfd, 0x19, 0xef,
  0x23, 0xee, 0x20, 0x02, 0xff, 0x1d, 0xf8, 0x0e, 0x05, 0x02, 0x06, 0xf2,
  0x1f, 0xe2, 0x09, 0xf7, 0x06, 0x0c, 0x00, 0xfc, 0xe8, 0x11, 0xfa, 0x07,
  0x0f, 0x0e, 0x05, 0x1a, 0x06, 0x10, 0xfa, 0xf4, 0xf2, 0x01, 0xf3, 0x01,
  0xf0, 0x0f, 0xfb, 0x16, 0x07, 0x01, 0x0d, 0x01, 0x18, 0xfe, 0xfe, 0x12,
  0xf9, 0xf2, 0xfb, 0xf7, 0xf1, 0xeb, 0x0f, 0x0e, 0x0e, 0x0b, 0x0b, 0x04,
  0x07, 0x04, 0x03, 0xfb, 0xfa, 0x03, 0xf5, 0xfd, 0xdf, 0xf2, 0x0d, 0x00,
  0x1e, 0x16, 0xe4, 0x05, 0x03, 0xed, 0x13, 0x03, 0x00, 0x03, 0xf1, 0x05,
  0x07, 0xf0, 0x06, 0x08, 0xf0, 0x12, 0xf8, 0xfc, 0x04, 0xe3, 0x1a, 0x07,
  0x02, 0xf5, 0xf6, 0x09, 0xf6, 0xf9, 0x08, 0x1b, 0xfb, 0xee, 0x05, 0x02,
  0x05, 0xec, 0xf4, 0xed, 0xfc, 0x04, 0xe7, 0x02, 0xf5, 0xf3, 0xfc, 0x21,
  0x06, 0x0b, 0x01, 0xf9, 0x0d, 0xf8, 0xf4, 0xf9, 0xed, 0xda, 0xf0, 0x06,
  0x03, 0xf2, 0x05, 0x1d, 0x0b, 0x09, 0x07, 0xf6, 0x00, 0x08, 0x0c, 0x0c,
  0xe6, 0xdd, 0xfa, 0xf9, 0xfc, 0xfa, 0x04, 0x17, 0x16, 0x0f, 0x04, 0xfa,
  0x0d, 0x0d, 0x0e, 0x01, 0xf5, 0xe9, 0xfe, 0xff, 0xf9, 0xf8, 0x15, 0x16,
  0x12, 0x02, 0xf2, 0xf9, 0x0b, 0x01, 0x02, 0xfd, 0xef, 0x05, 0xf4, 0x03,
  0xd1, 0xf2, 0x15, 0x14, 0x05, 0x06, 0xe6, 0x0b, 0xfc, 0xf7, 0xf6, 0x05,
  0xe9, 0x05, 0xf6, 0x06, 0x01, 0xf7, 0xfc, 0x1a, 0xe5, 0xfc, 0x0e, 0xf9,
  0xf5, 0xf9, 0x10, 0x03, 0x07, 0xf0, 0x18, 0x18, 0x0d, 0xee, 0x19, 0x06,
  0xf6, 0x04, 0x0e, 0xfa, 0x10, 0xff, 0x0c, 0xf8, 0xf2, 0xf9, 0x04, 0x0a,
  0x01, 0xe5, 0x12, 0x15, 0xfe, 0xfe, 0x0b, 0xfa, 0xfc, 0xfa, 0xee, 0x03,
  0xe8, 0xfa, 0xf0, 0xfc, 0xf6, 0xf0, 0x15, 0x0a, 0x11, 0x0a, 0xf9, 0x06,
  0xf6, 0x06, 0x0e, 0x01, 0xed, 0xfa, 0xf2, 0x01, 0xef, 0xed, 0xfc, 0x19,
  0x07, 0x06, 0xea, 0x01, 0xfa, 0xfc, 0x0a, 0x1a, 0xf3, 0x0e, 0x08, 0x01,
  0xf3, 0x00, 0x03, 0x19, 0x01, 0x03, 0xfb, 0x03, 0xd7, 0x04, 0x20, 0x07,
  0x04, 0xed, 0x08, 0xfb, 0x08, 0x04, 0xfb, 0x0d, 0xf6, 0xf7, 0x09, 0xfc,
  0x01, 0xed, 0x07, 0xfe, 0xe1, 0xfa, 0x07, 0x0a, 0x04, 0xf1, 0x16, 0xef,
  0xff, 0x00, 0x07, 0xf5, 0x17, 0xf8, 0xfc, 0x02, 0xf2, 0xf3, 0xf0, 0x08,
  0xfe, 0xec, 0x09, 0x14, 0xff, 0x12, 0xfd, 0xec, 0x06, 0x0f, 0x05, 0x0e,
  0x02, 0xeb, 0xff, 0xfe, 0xfe, 0xee, 0x0a, 0x13, 0x04, 0x12, 0x02, 0xf9,
  0xf8, 0x07, 0x09, 0x09, 0xf9, 0xed, 0xf1, 0x0a, 0xfe, 0xf9, 0x0d, 0x1b,
  0xff, 0x0b, 0xfb, 0xfc, 0xf8, 0x09, 0xfb, 0x07, 0xf9, 0xf1, 0xf5, 0x01,
  0x0c, 0xf1, 0xff, 0x0a, 0x02, 0x0c, 0xf9, 0x10, 0xec, 0x04, 0x0f, 0xf6,
  0xfd, 0xf0, 0xf1, 0x02, 0x13, 0xfb, 0x01, 0x11, 0x04, 0x05, 0x0b, 0x00,
  0x17, 0x00, 0x01, 0x0a, 0xd9, 0xf2, 0x0b, 0xfd, 0x04, 0xf0, 0x3d, 0xf9,
  0xfd, 0x15, 0xf9, 0x07, 0x14, 0xfd, 0x05, 0xf5, 0xf4, 0xe0, 0x06, 0xff,
  0xeb, 0xee, 0xfc, 0x0b, 0xf7, 0xfc, 0x13, 0xf2, 0x2e, 0xf8, 0x0a, 0xf4,
  0xf6, 0xe7, 0x01, 0xf8, 0xf1, 0xf8, 0x0e, 0xff, 0x03, 0x09, 0xfa, 0x05,
  0x17, 0xf2, 0x09, 0xf4, 0xfd, 0xd7, 0xf3, 0xf7, 0xfe, 0xf9, 0x0d, 0x13,
  0x05, 0xf3, 0xfc, 0x16, 0x22, 0xf1, 0x05, 0x0b, 0xf7, 0xe5, 0xe9, 0xf0,
  0xec, 0xf8, 0x0c, 0x0b, 0x17, 0x02, 0x00, 0x2f, 0x24, 0xf4, 0x01, 0xf4,
  0xee, 0xd3, 0xfe, 0xf5, 0xf6, 0x00, 0x07, 0x02, 0x0f, 0x02, 0x00, 0x14,
  0x33, 0xec, 0x1d, 0x0a, 0xf3, 0x11, 0x06, 0x03, 0x0e, 0xf1, 0xfe, 0x11,
  0x16, 0x02, 0xf8, 0xf3, 0x1a, 0xf3, 0x12, 0xf3, 0xf0, 0xf4, 0xf8, 0x10,
  0x0b, 0xff, 0xfb, 0x1f, 0x0c, 0x03, 0x00, 0x07, 0x2d, 0xfc, 0x18, 0x0a,
  0xf0, 0xe7, 0xed, 0x0b, 0x1b, 0xea, 0x18, 0x10, 0x0d, 0x05, 0x0c, 0x05,
  0x15, 0x05, 0x20, 0xf9, 0xeb, 0xf5, 0xf1, 0x0e, 0xfd, 0xee, 0x28, 0x0c,
  0x10, 0xfa, 0x04, 0x05, 0xf8, 0x01, 0xfb, 0xfc, 0xf7, 0xf3, 0x02, 0xff,
  0xe8, 0xf7, 0x1b, 0x09, 0x13, 0x0c, 0x07, 0x10, 0x02, 0xf7, 0x03, 0xf5,
  0xed, 0x07, 0x05, 0xe5, 0xe7, 0xfa, 0x1e, 0x0f, 0xfd, 0xff, 0xf9, 0x10,
  0xe2, 0x24, 0xf5, 0x0c, 0xfc, 0xf1, 0x03, 0x03, 0x17, 0xee, 0x08, 0xe9,
  0xef, 0xf1, 0xf9, 0xde, 0xf9, 0xeb, 0x0b, 0x10, 0x11, 0x07, 0x15, 0xfd,
  0x17, 0xee, 0x09, 0xe6, 0xf9, 0xfb, 0xf1, 0x08, 0xe6, 0x02, 0x02, 0xe7,
  0x0c, 0x0d, 0x07, 0x0f, 0x16, 0x1d, 0xee, 0xf1, 0xf1, 0xf4, 0xee, 0xfd,
  0xf3, 0xf8, 0xfb, 0x07, 0x05, 0xfd, 0x10, 0x05, 0x2c, 0x0d, 0xf1, 0xfd,
  0xd8, 0xe2, 0x25, 0xfd, 0x00, 0x14, 0xe2, 0xff, 0x00, 0x07, 0x13, 0xfa,
  0xfa, 0x13, 0xf9, 0xf4, 0x16, 0xec, 0x0b, 0x0c, 0xff, 0x2b, 0xe1, 0xf9,
  0x00, 0x0e, 0x0b, 0xf3, 0x0d, 0x0a, 0xf1, 0xde, 0x07, 0x16, 0xfa, 0xff,
  0xf7, 0x1a, 0x16, 0x17, 0x08, 0xf3, 0x1f, 0xfd, 0x10, 0x12, 0x03, 0xd6,
  0xf6, 0xf3, 0xff, 0x02, 0xef, 0x08, 0x0c, 0x10, 0x13, 0x2a, 0x11, 0xf7,
  0xf9, 0x0d, 0xf9, 0xda, 0xf4, 0xf8, 0xf8, 0x0f, 0x01, 0xf4, 0xf1, 0xf2,
  0x1f, 0x28, 0x08, 0x08, 0x06, 0x0c, 0xfa, 0xe2, 0xe1, 0xec, 0xfa, 0x06,
  0xec, 0xf1, 0xf3, 0xff, 0x0f, 0x18, 0x0a, 0x03, 0x09, 0x08, 0xe2, 0xec,
  0xe7, 0xfa, 0x11, 0x08, 0xee, 0xff, 0xfd, 0x03, 0x15, 0xfc, 0x14, 0xf6,
  0x3d, 0x13, 0xe6, 0xee, 0xf9, 0xfb, 0x24, 0xfb, 0x0b, 0x0e, 0x09, 0xfc,
  0x1a, 0xfc, 0x10, 0xf9, 0xf8, 0x0d, 0xfe, 0xe1, 0x21, 0x04, 0xed, 0x0b,
  0x0e, 0x0a, 0xeb, 0xf9, 0xf5, 0x0c, 0xe5, 0xe5, 0xf4, 0x18, 0xe4, 0xf8,
  0x0d, 0xfd, 0xf1, 0x09, 0xe9, 0x05, 0xf0, 0x09, 0x16, 0x0e, 0xfb, 0xf2,
  0xfe, 0x21, 0xee, 0xeb, 0x00, 0x02, 0xef, 0x05, 0x07, 0x0c, 0x17, 0xfd,
  0x21, 0x06, 0x13, 0x05, 0x0c, 0x12, 0xe3, 0xf2, 0xef, 0xf0, 0x03, 0xfb,
  0x10, 0xf9, 0xea, 0xfd, 0x19, 0x07, 0x0f, 0xff, 0x16, 0x17, 0x02, 0xdd,
  0xf7, 0xf7, 0x15, 0xfc, 0x0b, 0x05, 0xf6, 0xe4, 0x11, 0xf2, 0xf9, 0xff,
  0x09, 0x01, 0x00, 0xe0, 0xff, 0xfa, 0x04, 0x01, 0x37, 0xf7, 0xd7, 0xfb,
  0xff, 0x11, 0xf6, 0x08, 0xfb, 0xf7, 0x09, 0xf3, 0x08, 0x06, 0xf8, 0x0b,
  0xfe, 0x14, 0xf6, 0x05, 0x24, 0x06, 0xf6, 0xef, 0xf7, 0x16, 0xe7, 0x12,
  0xfe, 0x04, 0xf8, 0x08, 0xe2, 0x08, 0x05, 0xfe, 0x0f, 0x0f, 0x10, 0xf9,
  0xfe, 0x19, 0xf2, 0xdd, 0x07, 0xed, 0x07, 0x12, 0xfa, 0xf3, 0xfd, 0xed,
  0x00, 0x1d, 0x01, 0x04, 0x02, 0x17, 0xee, 0xe8, 0xf7, 0xe8, 0xff, 0x0a,
  0x0d, 0xf5, 0xf9, 0xf7, 0x0a, 0x18, 0x10, 0xf8, 0x03, 0x09, 0xf1, 0xda,
  0x02, 0xf5, 0x04, 0x0d, 0x10, 0xf2, 0x02, 0xfa, 0x06, 0x10, 0x13, 0xfa,
  0xf4, 0x16, 0xfd, 0xf3, 0xf6, 0xf3, 0x06, 0xea, 0x13, 0xfb, 0xe9, 0x0c,
  0x0c, 0x16, 0x16, 0xfc, 0xef, 0x03, 0xff, 0xe8, 0x00, 0xf8, 0xf7, 0x01,
  0xe2, 0xff, 0xff, 0xef, 0x34, 0x13, 0xf1, 0x00, 0xf8, 0x13, 0xb4, 0x0f,
  0x04, 0xe4, 0x07, 0xfc, 0xe0, 0x07, 0xf8, 0x0d, 0x0c, 0x24, 0xf4, 0x02,
  0x12, 0x19, 0x04, 0xf4, 0x07, 0x04, 0xef, 0x17, 0xc3, 0x0d, 0xf4, 0x0a,
  0x16, 0x1a, 0xfc, 0x05, 0x11, 0x0a, 0xed, 0xfe, 0xfb, 0xf3, 0x0c, 0xf8,
  0xe6, 0x12, 0xf5, 0x13, 0x08, 0x35, 0x12, 0x0c, 0x03, 0x0b, 0xf4, 0xe8,
  0xf7, 0x0f, 0x04, 0xe8, 0xe0, 0x15, 0xf9, 0xee, 0x0e, 0x25, 0x20, 0x13,
  0x19, 0x0b, 0xee, 0xef, 0xe2, 0xfc, 0x02, 0xc3, 0xd4, 0x0c, 0x03, 0x0e,
  0x16, 0x36, 0x04, 0x0e, 0x13, 0xfd, 0xf2, 0x00, 0xee, 0xf6, 0x03, 0xe5,
  0xc3, 0x17, 0xde, 0xf6, 0x16, 0xea, 0xf8, 0xfb, 0xee, 0x14, 0x04, 0xec,
  0xe5, 0xfe, 0x0a, 0x13, 0xdb, 0x0c, 0xe7, 0x0e, 0x14, 0x13, 0x09, 0xeb,
  0xed, 0x00, 0xff, 0xd8, 0xf1, 0xf7, 0xff, 0xf8, 0xc8, 0x05, 0xdb, 0xf5,
  0x17, 0x1a, 0x1b, 0xf0, 0xdd, 0x1b, 0xdd, 0xea, 0xee, 0xf7, 0xf0, 0xf5,
  0xe6, 0xfc, 0xd0, 0x0a, 0x18, 0x0d, 0x11, 0xea, 0x02, 0x17, 0xce, 0xf0,
  0xec, 0x06, 0xfd, 0xf9, 0x0a, 0x02, 0x03, 0x0a, 0x04, 0x14, 0xfd, 0xff,
  0x17, 0x0b, 0xdc, 0xf2, 0xea, 0xf4, 0xfa, 0xec, 0xfe, 0x08, 0xf8, 0x11,
  0x19, 0xfa, 0xfa, 0x26, 0x24, 0x0a, 0xdb, 0xf1, 0x07, 0x12, 0x1d, 0xff,
  0x22, 0xf8, 0x17, 0x05, 0xf2, 0xfa, 0x13, 0x01, 0x04, 0x20, 0x1e, 0xd7,
  0x19, 0x02, 0x04, 0x07, 0xfd, 0x17, 0xcc, 0xe2, 0xe6, 0x0c, 0xe7, 0xe9,
  0x17, 0x13, 0x02, 0xed, 0x0b, 0xf7, 0xf5, 0xfb, 0x29, 0x08, 0xf1, 0xe5,
  0xee, 0x04, 0xd4, 0x09, 0x01, 0xf7, 0xfe, 0xed, 0x0c, 0x07, 0x03, 0xf8,
  0x26, 0x22, 0xec, 0xe2, 0xf4, 0xfc, 0xf2, 0xff, 0xd4, 0xf2, 0xf8, 0xdf,
  0xfc, 0x10, 0xff, 0xf0, 0x11, 0x0c, 0xf1, 0xd0, 0xe6, 0xe5, 0xf2, 0xee,
  0xf2, 0xf1, 0x0e, 0xcf, 0xf4, 0xf5, 0x0b, 0xfa, 0xfa, 0x17, 0xe7, 0xe3,
  0x05, 0xd6, 0xf8, 0x00, 0xec, 0xed, 0xec, 0xf1, 0xf9, 0xfd, 0x26, 0x19,
  0xde, 0xf8, 0xff, 0xf5, 0x01, 0xf4, 0xff, 0x0a, 0x21, 0xfe, 0x1f, 0xdc,
  0x0b, 0x04, 0x1a, 0x0f, 0x12, 0xfb, 0xee, 0xff, 0x0e, 0xff, 0x08, 0xfe,
  0xf5, 0xfc, 0x01, 0xfa, 0x07, 0xfb, 0x03, 0x03, 0x1b, 0x01, 0x10, 0xee,
  0xf4, 0x02, 0xfe, 0xf8, 0xf8, 0xea, 0xf6, 0xf2, 0x01, 0xf5, 0xfc, 0xfa,
  0x14, 0xfa, 0x03, 0xf0, 0xee, 0xeb, 0xf9, 0xff, 0x07, 0xf7, 0x1a, 0xea,
  0xec, 0xee, 0x05, 0x17, 0xfe, 0xeb, 0x01, 0xf0, 0xfc, 0x04, 0xfd, 0xff,
  0xd5, 0xfe, 0x19, 0xeb, 0xd8, 0xf6, 0xfd, 0x18, 0x04, 0xf7, 0xe8, 0xe3,
  0x12, 0xdf, 0xf9, 0xf2, 0xf3, 0xff, 0x04, 0xcc, 0xf7, 0xfe, 0x10, 0xe5,
  0xf4, 0x1c, 0xf3, 0x11, 0x0a, 0xd8, 0xf3, 0xf3, 0x71, 0xf2, 0x12, 0xcb,
  0xff, 0xfe, 0x0e, 0x04, 0x05, 0xed, 0xdd, 0x08, 0x09, 0xf5, 0xf4, 0xf9,
  0x00, 0xfd, 0x07, 0xe1, 0x02, 0xf0, 0x10, 0xf9, 0xff, 0x02, 0xf8, 0xfe,
  0xf6, 0xf5, 0x08, 0xf4, 0x00, 0xff, 0x0d, 0xec, 0xfc, 0xfb, 0xdf, 0xfb,
  0xe5, 0xf7, 0x09, 0x02, 0xfa, 0xf2, 0xf7, 0xf1, 0xec, 0xfa, 0xf6, 0x00,
  0xf2, 0xef, 0xf4, 0xfd, 0x03, 0x01, 0xfb, 0x0b, 0x14, 0xfd, 0x06, 0xfe,
  0xce, 0x13, 0xe5, 0xef, 0xef, 0xfc, 0xea, 0xef, 0xc0, 0x04, 0x14, 0xeb,
  0x38, 0xc7, 0x0e, 0xf4, 0xff, 0x1c, 0xef, 0xe1, 0xf5, 0xf4, 0xfd, 0xee,
  0xde, 0xeb, 0x14, 0x0a, 0xf9, 0xe4, 0x07, 0xe8, 0x06, 0xff, 0x05, 0xc9,
  0xd6, 0xf4, 0x12, 0xf1, 0xe9, 0xe6, 0x02, 0x03, 0xfa, 0xfa, 0xf8, 0xf5,
  0xfa, 0xff, 0xf7, 0xec, 0xfc, 0xfe, 0xfc, 0xf2, 0xf2, 0x0a, 0xef, 0x0c,
  0xf8, 0xf6, 0x08, 0xf3, 0x11, 0x05, 0x09, 0xf3, 0xe2, 0xe5, 0xf6, 0xf6,
  0xf4, 0xfa, 0x0a, 0x08, 0xf3, 0xfd, 0xf2, 0xf8, 0xf5, 0xed, 0x02, 0xf4,
  0xfb, 0xec, 0xf2, 0xec, 0xf7, 0xf8, 0x07, 0xf4, 0x02, 0x2b, 0xf6, 0xfc,
  0xeb, 0xfc, 0xe4, 0x01, 0xec, 0xdd, 0xe3, 0xf9, 0xe3, 0xe9, 0x03, 0xf4,
  0x2c, 0x2f, 0xf7, 0xe8, 0x34, 0xfd, 0xf5, 0xf8, 0xf2, 0xfc, 0xf9, 0xde,
  0xfa, 0xfd, 0xfe, 0x0f, 0xec, 0x09, 0x0a, 0xf4, 0x11, 0x1c, 0x18, 0xc4,
  0xe4, 0x03, 0x03, 0xf8, 0x04, 0x0d, 0xf7, 0x05, 0x01, 0x0e, 0xf1, 0xe3,
  0xde, 0x0a, 0xee, 0xdf, 0xfa, 0xf7, 0x05, 0xf5, 0x06, 0x06, 0xf2, 0x0f,
  0x08, 0x0c, 0x06, 0xeb, 0x01, 0x0a, 0x07, 0xeb, 0xf8, 0xe4, 0xfe, 0xf9,
  0x0c, 0xf9, 0x04, 0xfa, 0xff, 0x02, 0xec, 0xee, 0x11, 0xfb, 0x0b, 0xfc,
  0xe9, 0xdf, 0xf1, 0xf7, 0xed, 0x14, 0x13, 0xfc, 0x14, 0x04, 0xf3, 0xe8,
  0xf3, 0xfe, 0xff, 0xef, 0xfd, 0xd2, 0xce, 0x0a, 0xf2, 0x2a, 0x25, 0xe3,
  0x0d, 0xf3, 0x05, 0xdb, 0x1f, 0x13, 0x09, 0xee, 0xe9, 0xeb, 0xe1, 0xdc,
  0xe1, 0xf3, 0xec, 0xf0, 0x0f, 0xf4, 0xe7, 0xcd, 0x2a, 0x19, 0x0c, 0xe7,
  0x07, 0xe8, 0xeb, 0xff, 0x0e, 0xf0, 0xf2, 0xfe, 0x15, 0x25, 0xe6, 0xd4,
  0x02, 0x0b, 0xee, 0xf1, 0xef, 0xf2, 0xd8, 0xec, 0x03, 0x0f, 0xe7, 0x07,
  0x03, 0x03, 0xea, 0xe7, 0xe3, 0xf7, 0x0c, 0x01, 0xfd, 0xf7, 0xed, 0x13,
  0x2e, 0x04, 0x03, 0xf8, 0xf9, 0x03, 0xdf, 0xe0, 0xfb, 0xea, 0x04, 0xf4,
  0xfd, 0xcf, 0xe5, 0x0e, 0xf2, 0xfd, 0xf7, 0xf8, 0xf2, 0x18, 0x04, 0xdb,
  0x01, 0xda, 0xff, 0xe0, 0x03, 0xbb, 0xe2, 0x15, 0xc3, 0x0c, 0xfa, 0xfd,
  0xf3, 0x16, 0x1a, 0xbe, 0x27, 0xf0, 0x09, 0x01, 0xe8, 0xfc, 0x09, 0xdc,
  0x21, 0x0a, 0x0a, 0xe2, 0x02, 0x24, 0xfd, 0xef, 0xf4, 0x11, 0xf0, 0xca,
  0xe9, 0xfd, 0xec, 0x1f, 0xf5, 0xee, 0xe7, 0xdc, 0x11, 0xf2, 0xf5, 0xe9,
  0x02, 0x1b, 0x0c, 0x23, 0x14, 0xeb, 0x20, 0x0b, 0x07, 0xff, 0xf4, 0xf5,
  0xeb, 0xe9, 0xeb, 0xf5, 0x07, 0xf0, 0xfd, 0x06, 0xfc, 0xf4, 0x08, 0xff,
  0xe7, 0x0b, 0xfa, 0xf6, 0xe2, 0xf9, 0xef, 0x00, 0x03, 0x03, 0x19, 0x0d,
  0x09, 0xec, 0x00, 0xde, 0x29, 0x0c, 0xf9, 0xfb, 0xfb, 0x19, 0xdc, 0xf0,
  0xef, 0x07, 0xfa, 0x02, 0xed, 0xe7, 0xff, 0xef, 0xc7, 0xd4, 0xef, 0x2f,
  0xe6, 0x07, 0xd8, 0xf7, 0xd0, 0x07, 0x0c, 0xf8, 0xee, 0x03, 0xf0, 0xee,
  0xf0, 0x02, 0x07, 0xe6, 0xe1, 0xeb, 0xee, 0xf8, 0x15, 0xff, 0xfd, 0x02,
  0xe7, 0xf9, 0x08, 0xed, 0xda, 0x04, 0xea, 0xec, 0xec, 0x06, 0xfc, 0xee,
  0x09, 0x06, 0x15, 0xfa, 0xf7, 0xf5, 0x0b, 0x0e, 0xf7, 0xfa, 0xf9, 0xea,
  0xf5, 0xf9, 0xfd, 0x00, 0x10, 0xf7, 0x05, 0x05, 0x02, 0xf5, 0x05, 0xf4,
  0x05, 0xf7, 0x11, 0xf8, 0xfb, 0x12, 0x04, 0x0a, 0xfd, 0xfd, 0xeb, 0x14,
  0xfb, 0xdf, 0x22, 0xf2, 0x06, 0x0b, 0xde, 0xf4, 0x09, 0xf8, 0x03, 0x05,
  0xe6, 0xe6, 0xf1, 0x10, 0xe7, 0xf7, 0xff, 0x13, 0xed, 0xfa, 0x00, 0xf6,
  0xdd, 0x1f, 0x00, 0xff, 0x14, 0x06, 0xda, 0xe4, 0xc6, 0x0d, 0xf1, 0x1d,
  0xc5, 0x19, 0xe0, 0xfc, 0x07, 0xdc, 0x1b, 0x18, 0x09, 0x0a, 0x2f, 0x09,
  0xe7, 0x02, 0xfb, 0x08, 0xe7, 0x0a, 0xed, 0xe5, 0x07, 0x07, 0x07, 0x10,
  0x15, 0x0a, 0x30, 0xfb, 0xf3, 0xfa, 0x0a, 0x00, 0xfc, 0x1f, 0x0b, 0xe7,
  0xfe, 0xf9, 0x05, 0x11, 0xf9, 0xff, 0xfc, 0x01, 0x12, 0xfb, 0x09, 0x0c,
  0xf5, 0x1f, 0xf1, 0xf5, 0xfd, 0xe3, 0xfd, 0xfb, 0xff, 0xfc, 0x09, 0xf0,
  0x08, 0xf4, 0xfa, 0xea, 0x07, 0x06, 0x08, 0x02, 0xf8, 0xcf, 0x00, 0xfd,
  0xfb, 0xfd, 0x25, 0xf0, 0x15, 0xe4, 0x07, 0x00, 0x01, 0xe6, 0x0d, 0xf9,
  0xec, 0xd8, 0x0f, 0x04, 0x21, 0xfe, 0x08, 0xf3, 0xeb, 0x1d, 0xfd, 0xde,
  0xba, 0xec, 0xf5, 0x04, 0xf6, 0xe6, 0x1d, 0xf9, 0x17, 0xe9, 0x14, 0x23,
  0xfc, 0x0a, 0xf2, 0xe9, 0xf5, 0x12, 0x0e, 0x03, 0x04, 0xeb, 0x02, 0xf5,
  0x0e, 0xf3, 0x1e, 0xfc, 0xf9, 0xf8, 0x0a, 0xf1, 0xee, 0x1a, 0x2b, 0xe9,
  0x01, 0x03, 0x00, 0xf4, 0xf4, 0xf0, 0x04, 0xea, 0x15, 0xf3, 0x11, 0x02,
  0xfe, 0x09, 0x0a, 0xed, 0x0f, 0xf2, 0xe6, 0xf0, 0x08, 0x06, 0x03, 0xfc,
  0x07, 0x06, 0x1e, 0x11, 0xe5, 0x11, 0xf4, 0xf6, 0x20, 0x08, 0xfb, 0xde,
  0x17, 0xfb, 0xf6, 0xeb, 0xdc, 0xe3, 0x15, 0xf5, 0xe9, 0x11, 0x0b, 0xf4,
  0x18, 0x0f, 0xff, 0xfd, 0x0f, 0xfc, 0x27, 0xfc, 0x05, 0x16, 0x15, 0xf0,
  0xe1, 0x12, 0xf1, 0xf9, 0x0d, 0x16, 0xfe, 0x04, 0x16, 0xf3, 0x1d, 0x3b,
  0x0b, 0x05, 0x0c, 0xf8, 0xf3, 0xf3, 0x06, 0xfb, 0xfc, 0xe9, 0x0e, 0xf1,
  0xdd, 0xfa, 0x0c, 0x13, 0xf0, 0x05, 0x0d, 0x0a, 0xcc, 0xe7, 0xfd, 0xf2,
  0xf3, 0x06, 0x06, 0xf8, 0xe0, 0xf6, 0xea, 0xee, 0x11, 0x07, 0x08, 0xfc,
  0xf9, 0xf1, 0xe7, 0xed, 0xfc, 0x09, 0xfb, 0xf9, 0xd8, 0xfd, 0xf4, 0x06,
  0x15, 0xfd, 0x22, 0xfb, 0x04, 0xf5, 0xdc, 0xf0, 0xfb, 0x03, 0xf3, 0xfd,
  0xf6, 0x05, 0xea, 0x1b, 0xf5, 0xfd, 0x2f, 0xf7, 0xf0, 0xfa, 0xf1, 0xed,
  0xf9, 0xf0, 0x04, 0xfb, 0x24, 0xff, 0x06, 0xf8, 0xfd, 0x08, 0x0f, 0xea,
  0xd3, 0xe7, 0x14, 0xd9, 0x2d, 0xfb, 0x0a, 0xe1, 0x00, 0xf1, 0x1d, 0x4e,
  0xfd, 0xfb, 0x09, 0x19, 0xd2, 0xe6, 0x08, 0xf3, 0x13, 0xf7, 0x10, 0xf9,
  0xf2, 0xe9, 0x1d, 0x06, 0x19, 0xed, 0xfc, 0xfb, 0xf7, 0xe3, 0x08, 0xea,
  0x1d, 0xf6, 0x0b, 0xee, 0x02, 0x08, 0x07, 0x03, 0xfc, 0xe2, 0x09, 0xef,
  0xde, 0xeb, 0xea, 0xff, 0x07, 0x1a, 0x10, 0xee, 0x02, 0xfe, 0xfa, 0xfb,
  0xee, 0xfb, 0x2e, 0xec, 0xd0, 0xe8, 0xfe, 0x09, 0x22, 0x20, 0xff, 0xe1,
  0x05, 0x0b, 0xfd, 0xfd, 0xf2, 0xf4, 0x25, 0xe9, 0xe8, 0xec, 0xf3, 0xd8,
  0x2e, 0xf1, 0x08, 0xf7, 0xf6, 0xf5, 0x2d, 0xe5, 0x35, 0xe5, 0xe1, 0xe8,
  0xc6, 0xd1, 0xff, 0xee, 0x24, 0xc4, 0xb3, 0xdd, 0x57, 0xdc, 0xf5, 0x2b,
  0xf8, 0xf1, 0x21, 0xc5, 0x1f, 0xd2, 0x0d, 0x19, 0x1c, 0xef, 0xe9, 0xfa,
  0x29, 0xf4, 0x04, 0x07, 0x03, 0x0c, 0xea, 0xcf, 0x22, 0xe6, 0x0b, 0xeb,
  0xf6, 0x12, 0xf6, 0xfc, 0xf4, 0x0c, 0xfb, 0x2a, 0xfd, 0x0a, 0x0c, 0x03,
  0x18, 0x05, 0x1f, 0x02, 0x0e, 0xf6, 0xe9, 0xff, 0xe8, 0xfb, 0xf8, 0xfc,
  0xf9, 0xfd, 0x20, 0xeb, 0xe6, 0x0c, 0x11, 0xf4, 0xfa, 0xdc, 0x01, 0xf7,
  0xd9, 0xe3, 0x01, 0x02, 0x21, 0xe4, 0xc6, 0xab, 0xfc, 0x2f, 0xf8, 0xd0,
  0x10, 0xeb, 0x2c, 0x0e, 0x0e, 0xea, 0xfd, 0x00, 0x11, 0x0f, 0x0a, 0xd3,
  0xdd, 0xec, 0xdd, 0x0b, 0x19, 0xca, 0xe0, 0xde, 0xe5, 0xe7, 0xe9, 0xec,
  0x02, 0xf9, 0xef, 0x08, 0x11, 0xd6, 0xdd, 0xf6, 0x0b, 0xd6, 0xec, 0xfa,
  0xe1, 0xf1, 0xea, 0xeb, 0x1b, 0x07, 0x13, 0x06, 0xff, 0xf7, 0xec, 0xe7,
  0x02, 0x05, 0xf4, 0xec, 0xed, 0xf0, 0xe2, 0xfc, 0x02, 0x08, 0x06, 0x1e,
  0xf4, 0x0a, 0xea, 0x06, 0x07, 0xfd, 0xfe, 0xf0, 0xe0, 0xf3, 0x0a, 0xf4,
  0x02, 0x06, 0x08, 0x04, 0x08, 0xfe, 0x16, 0x00, 0x09, 0xe5, 0xf2, 0xfe,
  0x1f, 0xfc, 0x02, 0xda, 0x0d, 0x07, 0x0d, 0xc2, 0xdf, 0x1d, 0x14, 0xe3,
  0x29, 0xa7, 0xef, 0xf2, 0xf0, 0xe0, 0x09, 0x02, 0x4b, 0xff, 0xe2, 0xb0,
  0x02, 0xd6, 0x03, 0xea, 0xdb, 0x10, 0xd9, 0xf0, 0xe5, 0xf1, 0xdf, 0xef,
  0x04, 0xfe, 0x17, 0xe0, 0x03, 0xeb, 0xdf, 0x09, 0xf0, 0xf1, 0xee, 0x05,
  0xf7, 0x02, 0xf8, 0xf7, 0x1f, 0x0b, 0x0c, 0x03, 0xfd, 0xed, 0xef, 0xf5,
  0xf5, 0x00, 0xfe, 0xf7, 0xea, 0xf7, 0xee, 0xed, 0xf5, 0x17, 0xf5, 0xf6,
  0x04, 0x06, 0xe1, 0x07, 0xe5, 0xf1, 0xf1, 0x07, 0x06, 0xf9, 0xee, 0x06,
  0x12, 0x22, 0xf3, 0x16, 0xed, 0xf9, 0xe8, 0xf6, 0xe8, 0x02, 0xe8, 0xfa,
  0xf7, 0xe0, 0xf6, 0x0a, 0x16, 0x22, 0xe5, 0xf2, 0x25, 0x22, 0xd5, 0xf8,
  0xef, 0x0d, 0xf0, 0xf4, 0xd1, 0xf4, 0xe2, 0x12, 0x30, 0xf8, 0xe1, 0xf0,
  0x2a, 0x08, 0xfa, 0xf6, 0x07, 0xe5, 0xe8, 0xf8, 0x31, 0x06, 0xd5, 0xe9,
  0x09, 0xf2, 0xe1, 0x07, 0x20, 0xe4, 0xdd, 0xfd, 0xf4, 0xe6, 0xee, 0x0a,
  0x12, 0x08, 0xf9, 0xfa, 0xfa, 0x04, 0x11, 0x02, 0x14, 0xe7, 0xf9, 0x08,
  0xf1, 0x08, 0xff, 0xfc, 0x1f, 0x02, 0xf6, 0xf6, 0x11, 0x1d, 0xed, 0xfc,
  0xdd, 0x0c, 0xef, 0x01, 0x13, 0x1c, 0xf6, 0xf5, 0xfb, 0xf6, 0xee, 0x17,
  0xee, 0x26, 0xd5, 0xfe, 0xd9, 0x1d, 0x17, 0x03, 0x05, 0x17, 0xe1, 0x0a,
  0xf5, 0x09, 0xe6, 0x18, 0x18, 0x25, 0xed, 0x02, 0xed, 0x00, 0x04, 0x03,
  0xdc, 0xcb, 0x05, 0x03, 0xdc, 0x0f, 0xea, 0x13, 0x15, 0x2f, 0xef, 0xf9,
  0xfa, 0xe4, 0x32, 0x0a, 0xca, 0x09, 0x12, 0xf8, 0x2f, 0x00, 0xd0, 0x26,
  0x16, 0x1a, 0xef, 0xde, 0xff, 0xfb, 0x0b, 0xf9, 0xf6, 0x34, 0x03, 0xfe,
  0x3d, 0x14, 0xf9, 0x29, 0x1e, 0x1b, 0xfc, 0xf1, 0xf1, 0x0a, 0x22, 0xee,
  0xf4, 0x35, 0x12, 0xff, 0x15, 0x14, 0x0a, 0x33, 0x22, 0x20, 0x13, 0x13,
  0xe6, 0x06, 0x23, 0xf7, 0x12, 0x13, 0x11, 0xe5, 0x07, 0x00, 0x04, 0x12,
  0x0f, 0x14, 0xfd, 0x16, 0xd7, 0x0d, 0x38, 0xfa, 0xf4, 0x20, 0x06, 0xda,
  0xf9, 0x00, 0xf7, 0x1b, 0x06, 0x1f, 0xcc, 0x01, 0xc8, 0x02, 0x13, 0xff,
  0x0c, 0x11, 0x12, 0xe3, 0xed, 0x09, 0x0f, 0x2f, 0x35, 0x14, 0xef, 0x10,
  0x04, 0xda, 0x29, 0x19, 0xed, 0x25, 0xfa, 0x00, 0x17, 0x0a, 0xfd, 0x14,
  0x0f, 0x0a, 0xfe, 0x33, 0x19, 0xe3, 0x12, 0xfd, 0x0c, 0x23, 0x1d, 0xfa,
  0x0e, 0xef, 0xeb, 0x1c, 0x25, 0x18, 0xfd, 0x1e, 0x01, 0xe5, 0x17, 0xf8,
  0xf6, 0x1f, 0x08, 0xff, 0xda, 0xff, 0x07, 0x1f, 0x16, 0x10, 0x1f, 0x20,
  0xe4, 0xda, 0x20, 0xef, 0x1e, 0x1b, 0xfc, 0xf9, 0xfc, 0xfb, 0xf0, 0x04,
  0x13, 0x0e, 0xe1, 0x2e, 0xe1, 0x03, 0x28, 0x0e, 0x19, 0x37, 0x01, 0xef,
  0xf5, 0x00, 0xf7, 0x00, 0x0f, 0x19, 0xe0, 0x3c, 0xda, 0x0d, 0x27, 0x0b,
  0x37, 0x48, 0x2c, 0xec, 0xb1, 0x0f, 0xea, 0x0e, 0xef, 0xff, 0x24, 0xf3,
  0x24, 0x00, 0x0c, 0xe6, 0x01, 0x1b, 0x18, 0xf8, 0xf0, 0x0c, 0x05, 0xcf,
  0xeb, 0xfd, 0xfe, 0x26, 0xe9, 0xfc, 0xfc, 0xda, 0x1c, 0xe9, 0xf9, 0xee,
  0xfe, 0x23, 0x14, 0x0e, 0x10, 0xf5, 0x1e, 0x12, 0x03, 0xfb, 0xf9, 0xf8,
  0x04, 0xe8, 0xe9, 0xf3, 0xfd, 0xfa, 0xfd, 0x05, 0xfc, 0xf2, 0x12, 0xf2,
  0xf8, 0xf9, 0x00, 0xf7, 0xf0, 0x02, 0xef, 0xf1, 0xfa, 0xfb, 0x17, 0x1a,
  0xfb, 0xf6, 0x03, 0xf5, 0x38, 0xfa, 0xf9, 0xf5, 0x11, 0x09, 0xda, 0xf1,
  0xed, 0x0b, 0x07, 0x01, 0xec, 0xf4, 0x11, 0x01, 0xe0, 0xd1, 0xe1, 0x33,
  0xfd, 0x16, 0xd5, 0xfe, 0xca, 0x0d, 0x1e, 0xf6, 0xe4, 0x08, 0xfd, 0x01,
  0xf9, 0x11, 0x03, 0xef, 0xe7, 0xfa, 0x03, 0xf9, 0x05, 0xf8, 0x0e, 0x01,
  0xed, 0xfd, 0x08, 0xef, 0xe1, 0x02, 0xf6, 0xf7, 0x03, 0x05, 0x05, 0xea,
  0x07, 0x05, 0x18, 0xf0, 0xed, 0xf2, 0x05, 0x18, 0xef, 0xf9, 0x04, 0xe7,
  0x05, 0xf5, 0xff, 0xfb, 0x01, 0x00, 0x0c, 0xf4, 0xfe, 0xed, 0x0a, 0xfb,
  0x03, 0xf5, 0x17, 0xf3, 0x0e, 0x14, 0x01, 0x06, 0x00, 0x04, 0xfb, 0x11,
  0xf9, 0xdf, 0x16, 0xf4, 0x04, 0xf9, 0xee, 0xf6, 0x14, 0x04, 0xf1, 0x00,
  0xe5, 0xeb, 0x00, 0x07, 0xe2, 0x01, 0x07, 0x1a, 0x02, 0xed, 0xf1, 0xfc,
  0xf4, 0x19, 0x09, 0x01, 0x0d, 0x0f, 0xec, 0xdf, 0xcb, 0x08, 0x04, 0x20,
  0xde, 0x11, 0xdc, 0xfa, 0x1a, 0xe2, 0x20, 0x09, 0x0a, 0x0f, 0x2d, 0x01,
  0xed, 0xfd, 0xff, 0x16, 0xf3, 0x0c, 0xf6, 0xf2, 0x18, 0x09, 0x0a, 0x08,
  0x10, 0x0c, 0x37, 0xf8, 0xf0, 0xfa, 0x03, 0x06, 0xff, 0x15, 0x1b, 0xec,
  0x15, 0xf6, 0x05, 0x0b, 0xff, 0xfe, 0x0b, 0xfa, 0x08, 0xfb, 0x0d, 0x18,
  0xfa, 0x0c, 0x0a, 0xf6, 0x0e, 0xe5, 0xfc, 0x01, 0xf5, 0x09, 0x15, 0xfa,
  0x09, 0xf0, 0xfe, 0xfb, 0x03, 0xf2, 0x16, 0xfb, 0x0f, 0xe2, 0x0c, 0xfb,
  0xfd, 0x0e, 0x24, 0xf0, 0x08, 0xe8, 0x00, 0x02, 0x02, 0xd6, 0x0f, 0xf9,
  0x00, 0xf0, 0x09, 0x0a, 0x10, 0xfa, 0x09, 0xf7, 0xe5, 0x16, 0x07, 0xdd,
  0xcd, 0xf5, 0xfe, 0x08, 0x09, 0xf0, 0x25, 0xfc, 0xf7, 0xe8, 0x16, 0x1b,
  0xf4, 0x0e, 0xf4, 0xed, 0xf7, 0x17, 0x0d, 0x07, 0x18, 0xf3, 0x0f, 0xec,
  0x0b, 0xf6, 0x24, 0x03, 0xf4, 0xf6, 0x09, 0xf6, 0xf2, 0x17, 0x24, 0xe8,
  0x1a, 0x00, 0x08, 0xf8, 0xed, 0xf1, 0x05, 0xff, 0x0c, 0xed, 0x12, 0x04,
  0xfa, 0x03, 0x17, 0xec, 0x16, 0xf3, 0xf3, 0xfb, 0x10, 0x02, 0x04, 0xff,
  0xfd, 0xf3, 0x25, 0x1b, 0xee, 0xfd, 0x02, 0xee, 0x1c, 0xfd, 0xff, 0xdf,
  0x11, 0xfa, 0x03, 0xec, 0xe3, 0xe5, 0x1d, 0xee, 0x06, 0x08, 0x0e, 0xf2,
  0x2e, 0x1c, 0x02, 0x04, 0x16, 0x05, 0x28, 0x0c, 0x00, 0x05, 0x19, 0xd7,
  0xef, 0x0e, 0xf0, 0xf1, 0x29, 0x15, 0x0c, 0x11, 0x04, 0xf4, 0x04, 0x24,
  0x05, 0x01, 0x0c, 0xf1, 0xf8, 0xdc, 0x07, 0xf5, 0x0f, 0xfe, 0x17, 0xf1,
  0xd9, 0xf7, 0xfb, 0x12, 0xf3, 0x03, 0x05, 0x0a, 0xd7, 0xe3, 0xf7, 0xf0,
  0x03, 0xff, 0x06, 0xf7, 0xe3, 0xed, 0xec, 0xfd, 0x00, 0xfc, 0x0d, 0xe5,
  0xfe, 0xec, 0xf6, 0xeb, 0x08, 0x05, 0x02, 0xfd, 0xe3, 0xfc, 0xf4, 0x0f,
  0x0d, 0xfb, 0x25, 0xed, 0x0c, 0xe5, 0xf0, 0xdc, 0x03, 0x01, 0xfb, 0x00,
  0xfd, 0x0b, 0xe9, 0x28, 0xf3, 0xf9, 0x30, 0xdf, 0xeb, 0x01, 0x02, 0xea,
  0x05, 0xf1, 0xf9, 0x06, 0x1a, 0x0a, 0xfa, 0xfc, 0xe3, 0x01, 0x13, 0xc6,
  0xc0, 0xeb, 0x0a, 0xc9, 0x4a, 0xee, 0x22, 0xf4, 0xff, 0xeb, 0x0e, 0x2f,
  0xee, 0x04, 0x00, 0xf8, 0xbe, 0xf0, 0x0d, 0xe9, 0x14, 0x0d, 0x15, 0xfb,
  0x13, 0xe6, 0x0a, 0xeb, 0xf8, 0xf2, 0xf2, 0xef, 0xde, 0xe2, 0x0b, 0xe9,
  0x28, 0xff, 0x0c, 0xe9, 0x15, 0x0a, 0xfb, 0xf8, 0xf6, 0xe4, 0xfd, 0xcd,
  0xd7, 0xe3, 0xec, 0x01, 0x0e, 0xfd, 0x14, 0xf5, 0x1b, 0x04, 0xfa, 0xf4,
  0xe3, 0xf6, 0x21, 0xd7, 0xca, 0xe0, 0xf7, 0xf2, 0x20, 0x05, 0x00, 0xea,
  0x18, 0x0c, 0xff, 0xfd, 0xe6, 0xf2, 0x28, 0xc1, 0xe1, 0xe9, 0xfc, 0xca,
  0x2a, 0xcd, 0x02, 0x06, 0x13, 0x08, 0x23, 0xe8, 0x42, 0xe4, 0xe4, 0xe7,
  0xbe, 0xca, 0xfc, 0xec, 0x28, 0xc3, 0xae, 0xda, 0x5e, 0xd3, 0xf4, 0x32,
  0xf5, 0xf0, 0x24, 0xc1, 0x25, 0xd0, 0x0d, 0x19, 0x1b, 0xf2, 0xe5, 0xff,
  0x31, 0xf3, 0x01, 0x05, 0x06, 0x0f, 0xe6, 0xc9, 0x28, 0xe3, 0x0e, 0xe6,
  0xf4, 0x19, 0xf6, 0xf8, 0xf1, 0x0b, 0xf6, 0x29, 0xff, 0x0d, 0x0e, 0xff,
  0x1a, 0x03, 0x27, 0x02, 0x0a, 0xf4, 0xe7, 0xff, 0xe2, 0x01, 0xfe, 0xfd,
  0xfa, 0xfb, 0x1f, 0xe9, 0xdf, 0x0f, 0x13, 0xf7, 0xf2, 0xd8, 0x03, 0xf5,
  0xd8, 0xe1, 0xfc, 0x03, 0x27, 0xdb, 0xc1, 0xa3, 0xf7, 0x34, 0xf2, 0xcb,
  0x12, 0xe7, 0x33, 0x12, 0x13, 0xe8, 0xfe, 0x00, 0x14, 0x11, 0x0e, 0xcb,
  0xd9, 0xeb, 0xdc, 0x0e, 0x18, 0xca, 0xd8, 0xda, 0xdf, 0xe0, 0xe5, 0xed,
  0x01, 0xf8, 0xec, 0x09, 0x12, 0xd3, 0xdd, 0xf4, 0x11, 0xd4, 0xec, 0xf9,
  0xe2, 0xef, 0xe6, 0xe4, 0x1f, 0x0a, 0x19, 0x06, 0x00, 0xf6, 0xe8, 0xe1,
  0x05, 0x01, 0xed, 0xe9, 0xea, 0xed, 0xe0, 0xf9, 0x08, 0x0c, 0x06, 0x20,
  0xf3, 0x0e, 0xea, 0x07, 0x09, 0xfa, 0x01, 0xf1, 0xde, 0xf1, 0x0b, 0xf4,
  0x06, 0x07, 0x0b, 0x07, 0x0b, 0xff, 0x19, 0xfd, 0x0a, 0xe7, 0xea, 0xff,
  0x23, 0xfb, 0x05, 0xda, 0x12, 0x0a, 0x10, 0xbc, 0xe6, 0x23, 0x15, 0xdf,
  0x2e, 0xa3, 0xed, 0xf0, 0xf0, 0xd9, 0x0a, 0x02, 0x4f, 0x01, 0xdf, 0xa2,
  0x06, 0xd3, 0x00, 0xea, 0xd8, 0x12, 0xd6, 0xf0, 0xe1, 0xed, 0xe0, 0xed,
  0x03, 0xfd, 0x12, 0xd8, 0x03, 0xe9, 0xda, 0x08, 0xee, 0xec, 0xef, 0x06,
  0xf5, 0xfa, 0xf3, 0xf0, 0x27, 0x0c, 0x0f, 0x07, 0xff, 0xee, 0xeb, 0xf6,
  0xf1, 0x02, 0xff, 0xf2, 0xe7, 0xf6, 0xed, 0xed, 0xf6, 0x17, 0xf1, 0xf6,
  0x06, 0x08, 0xe1, 0x07, 0xe1, 0xf1, 0xeb, 0x05, 0x08, 0xf8, 0xe9, 0x05,
  0x13, 0x29, 0xf0, 0x1a, 0xe9, 0xf8, 0xe3, 0xf6, 0xdf, 0x09, 0xe3, 0xfe,
  0xf9, 0xde, 0xf2, 0x09, 0x1e, 0x28, 0xe0, 0xf3, 0x23, 0x29, 0xd2, 0xf7,
  0xe9, 0x12, 0xf0, 0xf3, 0xc8, 0xf3, 0xe0, 0x14, 0x30, 0xf7, 0xdf, 0xf0,
  0x33, 0x09, 0xfa, 0xf6, 0x05, 0xe1, 0xe8, 0xfb, 0x39, 0x05, 0xcd, 0xe4,
  0x10, 0xf0, 0xe5, 0x07, 0x22, 0xe2, 0xd8, 0xfa, 0xf6, 0xe5, 0xed, 0x09,
  0x14, 0x01, 0xfb, 0xfd, 0xf7, 0x04, 0x12, 0x02, 0x11, 0xdf, 0xf9, 0x08,
  0xf2, 0x05, 0x04, 0x00, 0x29, 0xfe, 0xf4, 0xf5, 0x11, 0x20, 0xec, 0xff,
  0xdf, 0x09, 0xeb, 0x03, 0x12, 0x1d, 0xf3, 0xf2, 0xfd, 0xf5, 0xf1, 0x16,
  0xf0, 0x2a, 0xd0, 0xfc, 0xd3, 0x21, 0x15, 0x01, 0x04, 0x13, 0xe2, 0x03,
  0xf6, 0x08, 0xe2, 0x17, 0x20, 0x2e, 0xf0, 0x00, 0xe8, 0x01, 0x03, 0x06,
  0xde, 0xd1, 0x03, 0x05, 0xd2, 0x12, 0xe7, 0x15, 0x16, 0x38, 0xe9, 0xfd,
  0xfc, 0xde, 0x2f, 0x09, 0xc1, 0x0d, 0x14, 0xf2, 0x32, 0x01, 0xcf, 0x2f,
  0x15, 0x20, 0xf0, 0xe0, 0x00, 0xfc, 0x0b, 0xf3, 0xef, 0x38, 0x05, 0xfa,
  0x46, 0x1b, 0xf7, 0x2e, 0x24, 0x26, 0xf8, 0xea, 0xf5, 0x0a, 0x25, 0xec,
  0xf5, 0x36, 0x12, 0xfe, 0x17, 0x11, 0x0a, 0x32, 0x28, 0x24, 0x19, 0x15,
  0xe4, 0x06, 0x23, 0xf6, 0x13, 0x15, 0x14, 0xe4, 0x0f, 0x00, 0x04, 0x12,
  0x0e, 0x15, 0xfd, 0x15, 0xca, 0x13, 0x3c, 0xfd, 0xf2, 0x20, 0x05, 0xd1,
  0xf7, 0x00, 0xf6, 0x17, 0x09, 0x20, 0xc7, 0x04, 0xc4, 0xff, 0x16, 0xfd,
  0x0e, 0x18, 0x16, 0xe1, 0xe2, 0x0b, 0x0b, 0x33, 0x3c, 0x17, 0xec, 0x11,
  0x09, 0xda, 0x35, 0x1d, 0xe7, 0x28, 0xf7, 0x02, 0x16, 0x0d, 0xfd, 0x1b,
  0x0d, 0x0c, 0xfe, 0x34, 0x19, 0xe2, 0x17, 0xfc, 0x15, 0x24, 0x1d, 0xf7,
  0x0f, 0xf1, 0xea, 0x1f, 0x2a, 0x1f, 0xfc, 0x1e, 0x04, 0xe3, 0x1b, 0xf6,
  0xf5, 0x26, 0x09, 0x03, 0xd4, 0x03, 0x08, 0x28, 0x17, 0x17, 0x1f, 0x25,
  0xe0, 0xda, 0x25, 0xf5, 0x1f, 0x20, 0xfa, 0xf6, 0xf6, 0xfc, 0xea, 0x00,
  0x11, 0x10, 0xe2, 0x2c, 0xdc, 0x03, 0x2d, 0x0a, 0x17, 0x40, 0x02, 0xeb,
  0xf2, 0x01, 0xf3, 0x01, 0x13, 0x1f, 0xdb, 0x3e, 0xd2, 0x11, 0x31, 0x13,
  0x3a, 0x4f, 0x33, 0xe8, 0xa9, 0x0c, 0xe8, 0x11, 0xfa, 0xe8, 0xde, 0xfe,
  0xd9, 0x0b, 0xe3, 0xfa, 0x12, 0x04, 0xe9, 0x03, 0xfd, 0xdb, 0xde, 0x2c,
  0xe4, 0x00, 0xfe, 0xf5, 0x06, 0xe9, 0x3c, 0x21, 0x1b, 0xf4, 0x1c, 0x19,
  0xe1, 0xec, 0xff, 0x13, 0xf6, 0x09, 0x0b, 0x09, 0xd7, 0xfa, 0x13, 0x23,
  0x13, 0xf7, 0x30, 0xf4, 0xfe, 0x0b, 0xff, 0x19, 0xef, 0xf7, 0xfe, 0x06,
  0xd5, 0xd4, 0x15, 0x22, 0x11, 0x06, 0x12, 0x06, 0x31, 0x0e, 0x07, 0x22,
  0x06, 0xf1, 0x00, 0x15, 0xee, 0xf8, 0x0f, 0x35, 0x1d, 0x22, 0x14, 0x14,
  0x0b, 0x10, 0xf1, 0x3d, 0x0d, 0x0d, 0xf6, 0x04, 0x07, 0xe7, 0x1e, 0x1f,
  0xf3, 0x2d, 0x09, 0xfe, 0x15, 0x14, 0x16, 0x12, 0x09, 0x03, 0xd2, 0xe7,
  0x2e, 0x08, 0xfd, 0x0c, 0xfe, 0x0b, 0x04, 0xf5, 0xd7, 0x05, 0xda, 0x29,
  0xf2, 0xfd, 0xe5, 0xf0, 0xeb, 0x07, 0x17, 0xff, 0xef, 0x05, 0xf8, 0x00,
  0x0b, 0x04, 0xfc, 0x0c, 0xf8, 0x03, 0xfd, 0xfe, 0xe2, 0xff, 0xef, 0x0e,
  0x11, 0xfc, 0x01, 0x07, 0x06, 0x18, 0x0d, 0x15, 0xfe, 0x10, 0x04, 0x03,
  0xe9, 0x09, 0xf9, 0x16, 0x17, 0x11, 0x09, 0x00, 0xf9, 0x08, 0xe6, 0x19,
  0x18, 0x14, 0xfa, 0xe4, 0x06, 0x17, 0x03, 0x16, 0x06, 0xfd, 0x03, 0x02,
  0x32, 0x03, 0xe5, 0x17, 0x33, 0x0c, 0x09, 0xe2, 0xfa, 0x11, 0x23, 0x1c,
  0xf2, 0x24, 0x0b, 0x12, 0x0c, 0x05, 0xfb, 0x41, 0x09, 0x02, 0xeb, 0x23,
  0x12, 0xe1, 0x12, 0xeb, 0xfa, 0x36, 0x0e, 0x10, 0x81, 0x0e, 0xef, 0x37,
  0x00, 0x03, 0xee, 0xff, 0xfe, 0x16, 0x2b, 0xf7, 0xf5, 0x0e, 0x0d, 0x04,
  0x01, 0x06, 0xfd, 0x20, 0x00, 0x13, 0xec, 0x06, 0x02, 0x01, 0x09, 0x01,
  0x0b, 0x0d, 0xf6, 0x11, 0xfb, 0xfc, 0xec, 0x15, 0x07, 0x07, 0x26, 0x04,
  0x1a, 0x0c, 0xf3, 0xfd, 0x05, 0x13, 0x09, 0x13, 0x1a, 0x09, 0x0d, 0x03,
  0x0e, 0x13, 0x10, 0x04, 0xfe, 0xfa, 0x01, 0xf3, 0xe7, 0x05, 0xf9, 0x03,
  0x3f, 0xeb, 0x1b, 0x14, 0x15, 0x03, 0x1b, 0x14, 0x46, 0xfb, 0xf0, 0x18,
  0xc1, 0x43, 0xef, 0x10, 0x01, 0xe4, 0x17, 0x22, 0x0b, 0x0d, 0x03, 0x1a,
  0x23, 0x17, 0xea, 0xf8, 0x08, 0x1c, 0xf3, 0x1b, 0xfa, 0x02, 0xfa, 0x44,
  0x32, 0x11, 0xee, 0x15, 0x17, 0x1d, 0x00, 0xfd, 0x04, 0x04, 0x08, 0x0d,
  0x09, 0xfe, 0x04, 0x1a, 0x08, 0x06, 0x02, 0x0d, 0x0e, 0xf7, 0x15, 0xf4,
  0x0a, 0x0a, 0xf8, 0x11, 0xec, 0xfb, 0xf5, 0x10, 0x24, 0x21, 0x0a, 0x0d,
  0x10, 0x05, 0xf2, 0xfa, 0x0e, 0x04, 0x0f, 0x0b, 0x10, 0x14, 0xff, 0x07,
  0x07, 0x18, 0x0e, 0x16, 0x06, 0x06, 0xf8, 0x0c, 0xfd, 0xd2, 0x07, 0x04,
  0x16, 0x05, 0x1b, 0xfe, 0x1a, 0x2b, 0x1f, 0x09, 0x24, 0x18, 0xfd, 0x0b,
  0xd1, 0xca, 0x05, 0x18, 0xc2, 0x03, 0x11, 0x0a, 0x11, 0x06, 0x09, 0x27,
  0x02, 0x02, 0xff, 0xef, 0x17, 0xf4, 0xf5, 0x0b, 0xeb, 0xe1, 0xe1, 0x46,
  0x23, 0xfe, 0xfc, 0x0a, 0xfa, 0xef, 0x0d, 0xff, 0xfc, 0xec, 0x10, 0x20,
  0x29, 0xf7, 0x13, 0x28, 0x08, 0x0b, 0xfe, 0x10, 0xf7, 0xf9, 0x10, 0xf0,
  0xf5, 0xf7, 0xff, 0x1a, 0x02, 0xf6, 0xf8, 0x16, 0x0b, 0x21, 0x01, 0x04,
  0xf5, 0x08, 0xfa, 0x07, 0xfa, 0xfe, 0x16, 0x15, 0xec, 0x05, 0xf1, 0x05,
  0x17, 0x28, 0x13, 0x0b, 0x18, 0xe7, 0xee, 0x02, 0xee, 0x00, 0x12, 0x1f,
  0x0a, 0x04, 0x05, 0x12, 0x02, 0x35, 0x3a, 0xf4, 0x12, 0xd2, 0xd8, 0x22,
  0xf5, 0x0d, 0xf8, 0x29, 0xdc, 0xe9, 0xf3, 0x13, 0x18, 0x1c, 0x23, 0x2d,
  0x29, 0x0d, 0x14, 0x13, 0xec, 0x16, 0x1f, 0x37, 0xcf, 0xe1, 0xf2, 0x1c,
  0xfc, 0x1c, 0x17, 0xff, 0xf2, 0x12, 0x0d, 0x06, 0xe8, 0xd4, 0x1d, 0x34,
  0x03, 0xf2, 0x16, 0x13, 0x10, 0x0f, 0x2f, 0x11, 0xfb, 0xee, 0x1c, 0xfa,
  0xfc, 0xf9, 0x1b, 0x1a, 0x1f, 0x08, 0xf3, 0x03, 0x02, 0x0b, 0x15, 0xea,
  0xcd, 0xfb, 0xfe, 0x09, 0x07, 0xf9, 0x26, 0x28, 0x06, 0x1d, 0xf6, 0x13,
  0x04, 0x39, 0x21, 0xf2, 0x11, 0x04, 0x09, 0x08, 0x0b, 0xe5, 0xf9, 0x2b,
  0xf9, 0x2c, 0x02, 0x2a, 0xff, 0x50, 0x24, 0xe7, 0x46, 0xf1, 0x0a, 0x03,
  0x11, 0xe3, 0xe6, 0x4b, 0xd3, 0x14, 0xf7, 0xfd, 0x13, 0xf3, 0x22, 0x1f,
  0xf4, 0xdc, 0xf7, 0xfd, 0x11, 0xe9, 0x14, 0x0a, 0x13, 0xea, 0x24, 0x28,
  0x03, 0x04, 0x35, 0xff, 0x02, 0x11, 0x26, 0x0e, 0x1f, 0xf2, 0x07, 0x10,
  0xfd, 0x13, 0x0c, 0xdb, 0x06, 0x11, 0xff, 0xfa, 0xff, 0xf7, 0x05, 0x11,
  0x36, 0x05, 0x0f, 0xf4, 0xca, 0x0c, 0x03, 0x10, 0x03, 0x08, 0x1d, 0xeb,
  0x1f, 0xe1, 0x0b, 0x04, 0x32, 0x0e, 0x04, 0xe6, 0xe0, 0xef, 0x00, 0x12,
  0xfc, 0x14, 0x04, 0x22, 0xfb, 0xe6, 0x09, 0x04, 0x25, 0xe5, 0x06, 0x04,
  0xf0, 0xfe, 0x13, 0x06, 0xfe, 0x20, 0xf9, 0x0c, 0x38, 0xff, 0xf4, 0xf3,
  0x33, 0x1f, 0x20, 0x15, 0x0c, 0x08, 0x2b, 0x11, 0xf1, 0x00, 0x1d, 0x14,
  0x12, 0x13, 0xe5, 0x07, 0x20, 0x13, 0x1f, 0xf9, 0xd2, 0xf5, 0x14, 0x0a,
  0x00, 0x02, 0xf8, 0x0a, 0x0c, 0xf7, 0x07, 0x10, 0x27, 0xeb, 0x07, 0x07,
  0x02, 0xf7, 0x04, 0xf7, 0xfb, 0xfe, 0xfd, 0x11, 0xdf, 0x01, 0x08, 0xfd,
  0x15, 0xe8, 0x07, 0xea, 0xda, 0x0c, 0x07, 0xf0, 0x04, 0xfd, 0x0f, 0x19,
  0xf7, 0x0a, 0xfd, 0x01, 0x1a, 0xf4, 0x02, 0xf1, 0xf9, 0x08, 0x30, 0xf2,
  0x10, 0x10, 0xed, 0x01, 0x08, 0xee, 0x21, 0x00, 0x10, 0x14, 0xe0, 0xff,
  0x05, 0x0e, 0x2e, 0xeb, 0x09, 0x18, 0x0b, 0xf7, 0x04, 0xf3, 0xe9, 0x0c,
  0x33, 0xe8, 0x0c, 0x07, 0xfd, 0x0b, 0x2c, 0x11, 0x19, 0xe6, 0x23, 0xe6,
  0x26, 0xd5, 0x08, 0xf8, 0x20, 0x22, 0x12, 0xf2, 0xe2, 0xfe, 0xfb, 0xf1,
  0x09, 0xfd, 0x16, 0x07, 0x1d, 0x08, 0x0f, 0x13, 0x0d, 0xf6, 0x16, 0xf8,
  0xf1, 0xf7, 0x03, 0x03, 0x0b, 0x09, 0x00, 0x02, 0xf2, 0xe2, 0x05, 0x0e,
  0x1f, 0xff, 0x02, 0xf2, 0xf2, 0xf4, 0x25, 0xf7, 0xf5, 0x00, 0x00, 0x0d,
  0x0d, 0xe0, 0x2c, 0x01, 0x12, 0x0f, 0x06, 0x12, 0xfb, 0x10, 0x12, 0x25,
  0xfa, 0x07, 0xfc, 0x25, 0xd4, 0xdf, 0x0e, 0xfc, 0x17, 0x3c, 0x14, 0xfc,
  0x0a, 0x11, 0xfd, 0x1b, 0xe9, 0x18, 0xf8, 0x0b, 0xfc, 0xf4, 0xf6, 0x05,
  0x19, 0x3f, 0xff, 0x07, 0xd9, 0xff, 0xf4, 0x0e, 0x00, 0xe9, 0x10, 0xf7,
  0x42, 0x14, 0x13, 0xfb, 0x1e, 0x12, 0x13, 0x1b, 0xe6, 0xfd, 0x03, 0xe5,
  0xf9, 0xf8, 0x0b, 0x01, 0x21, 0xfb, 0xee, 0x11, 0x12, 0x06, 0x0d, 0x08,
  0x05, 0xfe, 0x14, 0x12, 0xfc, 0x06, 0x01, 0x08, 0x08, 0xf6, 0xe9, 0xff,
  0x2c, 0xf7, 0x13, 0x08, 0x03, 0xf0, 0x06, 0x2b, 0xfa, 0x07, 0xf9, 0xfa,
  0xe9, 0xf8, 0x0c, 0xfe, 0x14, 0x04, 0x13, 0x0f, 0x11, 0xff, 0x08, 0x1a,
  0xe8, 0xf4, 0xf9, 0x0c, 0xf3, 0xf0, 0x16, 0xf9, 0xf7, 0xf2, 0x06, 0x0f,
  0xfc, 0xfe, 0x10, 0x0d, 0x21, 0x1c, 0x0c, 0x05, 0x24, 0x01, 0x14, 0x0a,
  0x0e, 0xf8, 0x08, 0x14, 0xf7, 0x1c, 0xfa, 0x21, 0xf9, 0xf5, 0x08, 0xd1,
  0x15, 0xe6, 0x07, 0xf0, 0x0c, 0xf6, 0x2c, 0x19, 0xf4, 0xf8, 0xea, 0xda,
  0xf9, 0x07, 0xfa, 0xed, 0x14, 0xe2, 0x04, 0xec, 0x1c, 0x26, 0x22, 0x0b,
  0x13, 0xf2, 0xdf, 0x08, 0x0c, 0x01, 0xff, 0xea, 0x30, 0xf6, 0x08, 0xf0,
  0x14, 0xef, 0x0d, 0xfd, 0x04, 0xf1, 0x12, 0x20, 0xed, 0xfa, 0x07, 0xe1,
  0xfd, 0xf9, 0x24, 0xec, 0x1b, 0xf2, 0x1d, 0xf6, 0x13, 0xfc, 0x13, 0x1e,
  0xfa, 0x02, 0xf6, 0xf8, 0xfe, 0xde, 0x37, 0xe1, 0xfd, 0xfd, 0x14, 0xfd,
  0x0b, 0x0c, 0x08, 0x1f, 0x05, 0x03, 0xf0, 0xf1, 0x09, 0xfd, 0x16, 0xfe,
  0x0c, 0xfb, 0xf9, 0x0b, 0xd6, 0x0f, 0xf8, 0x0f, 0xe6, 0xff, 0x00, 0xd8,
  0x08, 0xf4, 0x08, 0xfe, 0x1f, 0x06, 0x39, 0x35, 0x11, 0xeb, 0xda, 0xce,
  0xed, 0x11, 0xed, 0xba, 0xf3, 0x0a, 0x1c, 0xe6, 0xf2, 0x32, 0x24, 0x1a,
  0x48, 0x00, 0xd3, 0xf5, 0xd2, 0x10, 0xf0, 0xe0, 0xee, 0xfc, 0x21, 0x01,
  0xfb, 0x11, 0xff, 0x06, 0x2a, 0xf2, 0x07, 0xfc, 0xf8, 0x10, 0xff, 0xd4,
  0xe6, 0xf4, 0x2d, 0xfc, 0x04, 0xd1, 0x0d, 0x28, 0x2b, 0x01, 0x13, 0xff,
  0xf8, 0xf6, 0xe2, 0xdb, 0xef, 0xfd, 0xfe, 0xd5, 0x04, 0xda, 0x07, 0x21,
  0x0c, 0x01, 0x11, 0x0a, 0x00, 0x0f, 0x03, 0xce, 0xf0, 0xf1, 0x1c, 0xf6,
  0xf8, 0xdd, 0x0a, 0x11, 0x00, 0x20, 0xfb, 0x11, 0x7c, 0xe2, 0xff, 0xff,
  0x80, 0xe2, 0xff, 0xff, 0x84, 0xe2, 0xff, 0xff, 0x0a, 0xf5, 0xff, 0xff,
  0x04, 0x00, 0x00, 0x00, 0x40, 0x00, 0x00, 0x00, 0x62, 0xfe, 0xff, 0xff,
  0xcd, 0xfd, 0xff, 0xff, 0xfe, 0xff, 0xff, 0xff, 0x41, 0x03, 0x00, 0x00,
  0x3d, 0x00, 0x00, 0x00, 0x28, 0xfc, 0xff, 0xff, 0x92, 0xff, 0xff, 0xff,
  0x22, 0xfb, 0xff, 0xff, 0x30, 0x00, 0x00, 0x00, 0x34, 0xfc, 0xff, 0xff,
  0x36, 0xff, 0xff, 0xff, 0xea, 0xfd, 0xff, 0xff, 0xa3, 0xf9, 0xff, 0xff,
  0x76, 0xf8, 0xff, 0xff, 0x0d, 0x05, 0x00, 0x00, 0xed, 0x01, 0x00, 0x00,
  0x56, 0xf5, 0xff, 0xff, 0x04, 0x00, 0x00, 0x00, 0x00, 0x09, 0x00, 0x00,
  0xee, 0xcc, 0x06, 0x05, 0xbe, 0x33, 0xdd, 0xee, 0x0c, 0x25, 0xd1, 0xe8,
  0xf8, 0x04, 0xe0, 0x12, 0x13, 0xf7, 0xa8, 0xdd, 0x04, 0x87, 0xfd, 0x1b,
  0x07, 0x22, 0xd1, 0xd3, 0xfa, 0x7f, 0xe6, 0xe1, 0xfc, 0xd9, 0xb1, 0x21,
  0xf2, 0x02, 0x97, 0x49, 0xf0, 0xfc, 0xf0, 0x11, 0x0e, 0x1d, 0x13, 0xf7,
  0x02, 0x2e, 0xf1, 0x07, 0xf5, 0x3d, 0xfd, 0xe5, 0x60, 0x1a, 0x2e, 0xf6,
  0x29, 0x06, 0x0a, 0x0c, 0x16, 0x06, 0x1f, 0xe1, 0x20, 0x24, 0xca, 0x1e,
  0x33, 0xdf, 0x03, 0xeb, 0x1b, 0x3d, 0xef, 0xae, 0xde, 0xfa, 0x04, 0x09,
  0xe5, 0x03, 0xf2, 0x49, 0x0b, 0x4c, 0x00, 0x17, 0xf4, 0xe7, 0x65, 0xf5,
  0xdd, 0xe2, 0x3e, 0xcf, 0xe8, 0xf9, 0xd3, 0x26, 0x03, 0x32, 0xd4, 0x1a,
  0xec, 0xfd, 0x42, 0x05, 0xbf, 0xee, 0xee, 0xc0, 0x0b, 0xb2, 0xda, 0xfb,
  0xbc, 0xc7, 0xde, 0xf4, 0xf4, 0xe9, 0xd8, 0x14, 0x96, 0xab, 0xeb, 0xf3,
  0xe6, 0xdc, 0xd7, 0x0d, 0xe9, 0x75, 0xea, 0x12, 0xf7, 0x53, 0x11, 0x26,
  0xfb, 0xc7, 0x04, 0x09, 0xf8, 0xe2, 0xcc, 0x0d, 0xf0, 0x0c, 0x0b, 0xef,
  0xdc, 0x11, 0x1c, 0xf9, 0xf2, 0x07, 0xce, 0x0e, 0xe6, 0xe0, 0x00, 0x45,
  0x02, 0x21, 0xdb, 0x1b, 0xdb, 0x08, 0xec, 0x1f, 0x98, 0x1b, 0xac, 0xe1,
  0xeb, 0xd4, 0x0a, 0xf1, 0x15, 0x43, 0xf2, 0xdd, 0x36, 0x00, 0x09, 0x49,
  0x09, 0x22, 0x08, 0x33, 0x13, 0x1f, 0xdb, 0xfe, 0x03, 0xf5, 0xf0, 0xd5,
  0xf1, 0x29, 0xfe, 0xe0, 0x33, 0x1e, 0xf7, 0xd0, 0x18, 0x41, 0xd3, 0x56,
  0xd9, 0x0f, 0x04, 0x18, 0xb3, 0x11, 0x31, 0xdf, 0xda, 0xab, 0x0e, 0x19,
  0xd0, 0xff, 0x0d, 0xe2, 0xe2, 0xb6, 0x08, 0xf1, 0x02, 0xc6, 0x32, 0xde,
  0xf4, 0x07, 0x00, 0x01, 0x14, 0x20, 0x5f, 0x17, 0x0e, 0x39, 0xee, 0x01,
  0x10, 0xeb, 0x2b, 0x09, 0x11, 0xd4, 0xff, 0xcc, 0xc3, 0x1c, 0xc0, 0xff,
  0x22, 0x17, 0xbe, 0xd3, 0xfd, 0xf4, 0x09, 0x0b, 0x81, 0xcd, 0x01, 0x20,
  0xc8, 0xe2, 0xd4, 0x1d, 0x46, 0x22, 0xe9, 0xde, 0xf6, 0xb9, 0xbf, 0x00,
  0x9f, 0x10, 0x15, 0xe5, 0x4a, 0x3c, 0x4c, 0xb1, 0xfa, 0x08, 0xea, 0xed,
  0x02, 0x18, 0x1e, 0xde, 0xc8, 0xca, 0xfb, 0xda, 0x28, 0xdf, 0x19, 0x0f,
  0xd0, 0x10, 0x04, 0x09, 0xe5, 0xd3, 0x29, 0xd8, 0xfa, 0xe1, 0x16, 0x11,
  0x09, 0xfb, 0xcb, 0x57, 0x31, 0x0a, 0xde, 0xd5, 0x27, 0xf6, 0xbd, 0xcd,
  0xbe, 0xf0, 0xed, 0x83, 0x56, 0x12, 0xc8, 0x23, 0x11, 0x67, 0x2b, 0xdf,
  0x06, 0xe2, 0xd3, 0x00, 0x1b, 0xf8, 0x22, 0xc9, 0x1b, 0xd7, 0x0c, 0x11,
  0x08, 0x7f, 0x35, 0xeb, 0xd0, 0xe3, 0x52, 0x19, 0xde, 0xc7, 0xf5, 0x25,
  0xe8, 0x02, 0xa1, 0xf8, 0x02, 0xd4, 0x3b, 0xf3, 0xd4, 0xe7, 0xfa, 0x0c,
  0xf4, 0xde, 0x22, 0x21, 0x0c, 0xdd, 0x8f, 0x29, 0xd6, 0x32, 0x16, 0xa3,
  0x07, 0xb7, 0x00, 0xf7, 0xc8, 0x16, 0x4c, 0xf5, 0x10, 0x3e, 0xdf, 0xea,
  0xe1, 0x19, 0xd9, 0xe8, 0x21, 0x17, 0x1b, 0xf0, 0xd0, 0xf3, 0x01, 0xcf,
  0xf8, 0xff, 0x23, 0x00, 0xd0, 0xeb, 0xd5, 0xb6, 0x3c, 0xc5, 0x2e, 0x05,
  0xcb, 0x08, 0x40, 0xcf, 0x1c, 0x10, 0xcb, 0x07, 0xeb, 0xd7, 0x06, 0x08,
  0x26, 0xe2, 0xe3, 0xae, 0xda, 0xf6, 0xf8, 0xd4, 0x16, 0x20, 0xa1, 0x17,
  0x0e, 0xfb, 0xe6, 0xff, 0xf4, 0xff, 0xf2, 0xe6, 0xd3, 0xfb, 0x31, 0xee,
  0xd3, 0xe4, 0xfe, 0xed, 0xef, 0x44, 0x15, 0x19, 0xea, 0xf9, 0xed, 0x0c,
  0x11, 0x0c, 0x46, 0xf2, 0xfe, 0x21, 0xf5, 0xdb, 0x2c, 0x28, 0x4f, 0x04,
  0xff, 0xdb, 0x23, 0xf1, 0xe0, 0x08, 0x12, 0xd2, 0x1c, 0x09, 0xf4, 0xff,
  0x44, 0x3c, 0x33, 0xda, 0x12, 0x15, 0xe1, 0xe9, 0xc4, 0x9f, 0x0d, 0xe5,
  0x07, 0x3f, 0x67, 0xf5, 0x60, 0x1b, 0xef, 0x30, 0xdd, 0x50, 0xf3, 0x2a,
  0xe6, 0x0f, 0xc9, 0xd4, 0x06, 0xfa, 0xe8, 0x16, 0x0a, 0x08, 0xfe, 0x1f,
  0xc8, 0xf2, 0xf1, 0x17, 0x11, 0x33, 0xe3, 0xbd, 0x1b, 0xc3, 0xde, 0x21,
  0x2f, 0x24, 0x20, 0xd4, 0xbc, 0xf6, 0xf4, 0xfe, 0xa1, 0x30, 0x06, 0xfc,
  0xf9, 0xe0, 0xf2, 0xd9, 0xdd, 0x7f, 0x24, 0xf4, 0xaa, 0xf4, 0xed, 0x4a,
  0xfc, 0xeb, 0x03, 0x09, 0x2d, 0x19, 0x1b, 0xd6, 0x22, 0xf3, 0xe2, 0xee,
  0xfd, 0xd5, 0xe5, 0x17, 0x17, 0xfa, 0x21, 0xef, 0x1b, 0x00, 0x3d, 0x16,
  0xd3, 0xef, 0x35, 0xed, 0x57, 0xfd, 0x39, 0xc1, 0xc9, 0x14, 0x35, 0xfc,
  0x12, 0x0a, 0x0f, 0xdd, 0xb5, 0x14, 0xf5, 0x19, 0xe4, 0xde, 0x21, 0xf2,
  0x13, 0xbe, 0xb8, 0xf1, 0xdd, 0xbf, 0xee, 0x2c, 0x28, 0xe4, 0xfb, 0x1f,
  0x9a, 0x27, 0x00, 0x2a, 0xba, 0xe6, 0xf5, 0xfc, 0xc7, 0xd6, 0x81, 0x2a,
  0xc2, 0x0a, 0xc3, 0x36, 0x3d, 0xfa, 0xcf, 0xfc, 0xc6, 0xe0, 0x96, 0xf4,
  0xec, 0xa7, 0x9a, 0x55, 0x02, 0x43, 0x1b, 0xf6, 0xe9, 0x32, 0x11, 0x21,
  0x04, 0x02, 0x07, 0xe3, 0x33, 0xf5, 0xdd, 0x06, 0xd8, 0x05, 0xf3, 0xec,
  0x0d, 0x1b, 0x08, 0xc4, 0xda, 0x26, 0x12, 0xe5, 0x3d, 0xd8, 0x03, 0x25,
  0xd0, 0x2a, 0xfb, 0x45, 0x33, 0x11, 0x00, 0xce, 0xb4, 0x23, 0x3c, 0xf5,
  0x1b, 0xea, 0x35, 0xc0, 0xd0, 0x33, 0x03, 0xd6, 0x23, 0xf5, 0x2a, 0xdd,
  0x2a, 0xfd, 0x3a, 0xd0, 0xc0, 0xc8, 0x13, 0xdd, 0x06, 0x00, 0xed, 0x41,
  0x17, 0x0c, 0xe2, 0x0c, 0x98, 0xee, 0x1a, 0x05, 0x17, 0x0f, 0xca, 0xd4,
  0x38, 0x18, 0xe7, 0xd8, 0xd3, 0x25, 0x78, 0xf9, 0x21, 0x3b, 0x00, 0x1f,
  0xef, 0xbe, 0xa8, 0x31, 0x08, 0xf8, 0xd2, 0xf7, 0xec, 0x2e, 0x4b, 0x40,
  0x37, 0x2f, 0x0e, 0x01, 0x25, 0x01, 0xe9, 0xf9, 0xc3, 0x00, 0xdc, 0xfb,
  0xbc, 0x06, 0xc2, 0xf8, 0x18, 0xe3, 0x13, 0xf3, 0x04, 0x20, 0xc8, 0xfd,
  0xed, 0x18, 0x05, 0x15, 0xd9, 0xd4, 0xd6, 0xe7, 0xde, 0xc9, 0xd3, 0xf7,
  0x0c, 0x01, 0x81, 0xff, 0xed, 0x04, 0xdd, 0xcf, 0x1b, 0x1b, 0x07, 0xf0,
  0xd7, 0xfa, 0x1f, 0xd8, 0xdd, 0x2b, 0xa9, 0x2a, 0xf1, 0xf6, 0xe8, 0x0f,
  0x34, 0xd2, 0x44, 0xef, 0xbd, 0xef, 0x4a, 0xfc, 0xcf, 0xe0, 0xd2, 0x1b,
  0xf2, 0xe0, 0xe6, 0x2a, 0x0e, 0xac, 0x3c, 0xf0, 0x24, 0xc6, 0x52, 0x11,
  0xcd, 0x10, 0xb9, 0x39, 0x2b, 0x32, 0xf4, 0xca, 0x34, 0x51, 0x1b, 0xbb,
  0xa1, 0x06, 0xdc, 0xff, 0x18, 0xb5, 0x02, 0xd0, 0xee, 0x0d, 0x1c, 0xf2,
  0xf7, 0xd0, 0xab, 0x21, 0x09, 0xf8, 0x1b, 0xe2, 0x2b, 0x24, 0xd4, 0x60,
  0x2f, 0x25, 0x66, 0x7f, 0xd1, 0xbe, 0xa0, 0xfd, 0x2b, 0x17, 0xde, 0x21,
  0xf0, 0x11, 0xf5, 0x0b, 0xe0, 0x97, 0x17, 0x4f, 0xf5, 0x2f, 0x1f, 0x0a,
  0xea, 0xd6, 0xc5, 0x78, 0x14, 0x3d, 0x72, 0x44, 0x0f, 0xc0, 0x10, 0x21,
  0x0b, 0xeb, 0xb9, 0x0e, 0x65, 0x32, 0xec, 0x8e, 0xd4, 0xed, 0xcc, 0xe8,
  0xdd, 0xc1, 0x13, 0xcf, 0x95, 0xde, 0x6a, 0x4e, 0x69, 0xc9, 0xad, 0xe3,
  0xf6, 0xd1, 0xf1, 0x0d, 0x4e, 0xee, 0xbd, 0xee, 0xbf, 0x2d, 0xf4, 0xe8,
  0x0c, 0x23, 0x22, 0x00, 0x34, 0x2b, 0x38, 0x05, 0x3c, 0xde, 0x0d, 0x17,
  0xa9, 0xf2, 0x09, 0xd4, 0x5c, 0xde, 0x55, 0x4a, 0x06, 0xc7, 0xeb, 0xab,
  0xdb, 0x8e, 0x39, 0xaf, 0x1e, 0x43, 0xb5, 0xce, 0x27, 0xb0, 0x2d, 0xd8,
  0x0f, 0xe2, 0x26, 0xee, 0x58, 0xc9, 0xce, 0x0e, 0xbe, 0x14, 0xfe, 0xe2,
  0x4f, 0xf6, 0xf8, 0xd4, 0x23, 0xcf, 0xec, 0x1e, 0xc6, 0x95, 0xf9, 0xe3,
  0xf2, 0x12, 0xf6, 0xec, 0x0d, 0x0f, 0x31, 0x0c, 0xe7, 0xd2, 0x71, 0xab,
  0xf5, 0xc2, 0x1a, 0x33, 0xd8, 0x6b, 0xee, 0x08, 0x60, 0x45, 0x17, 0x0c,
  0xb3, 0x03, 0x40, 0x84, 0xf1, 0xad, 0xce, 0xa7, 0x01, 0x3b, 0xd3, 0x00,
  0xef, 0xe7, 0xe1, 0xfb, 0xe5, 0xd1, 0xf9, 0x3f, 0xfc, 0x1e, 0x02, 0x43,
  0xb8, 0x1c, 0xe5, 0xf9, 0xf8, 0xaa, 0xe5, 0xce, 0xdb, 0x01, 0xa8, 0x15,
  0x0d, 0xb3, 0x2d, 0x32, 0x1c, 0xe7, 0x7f, 0xc4, 0x0b, 0x0c, 0xc1, 0x21,
  0x05, 0xbf, 0x2d, 0xfe, 0x5a, 0xec, 0xf1, 0x11, 0xba, 0xe5, 0xd9, 0x2c,
  0xb8, 0x2a, 0xf5, 0xfc, 0x10, 0xdc, 0x70, 0x0f, 0xe9, 0x4a, 0xd5, 0x1d,
  0xf6, 0xd4, 0xed, 0xcb, 0xf6, 0x16, 0xf0, 0x35, 0x0e, 0x2b, 0xe5, 0x2e,
  0x0f, 0x36, 0xee, 0xf2, 0x4a, 0x10, 0x0f, 0xda, 0xee, 0x07, 0x1c, 0x94,
  0xf1, 0xc0, 0x08, 0x91, 0xf7, 0x28, 0xe0, 0x42, 0xec, 0x5c, 0xbd, 0xc9,
  0xf1, 0xf5, 0xf8, 0x26, 0xfb, 0xf9, 0x3d, 0xce, 0xe1, 0x5a, 0x08, 0xf9,
  0x26, 0xff, 0xe9, 0x0b, 0x00, 0x2b, 0x47, 0x12, 0x23, 0x15, 0xb1, 0x07,
  0xfa, 0x00, 0x4a, 0xe5, 0x0a, 0x15, 0x22, 0xe3, 0xfb, 0x05, 0x25, 0xed,
  0x1c, 0xe2, 0x07, 0xe7, 0x19, 0x01, 0x08, 0xf6, 0xf2, 0xd4, 0xa9, 0xdf,
  0x1a, 0xdf, 0x00, 0xff, 0x24, 0xd4, 0xa6, 0xe9, 0x2a, 0x1d, 0x0b, 0xcc,
  0xf5, 0x17, 0x03, 0xf1, 0x41, 0xf0, 0x2b, 0xcf, 0xbb, 0xfd, 0xdc, 0x17,
  0x2b, 0x0d, 0xcf, 0x00, 0xf3, 0xe5, 0xea, 0xef, 0x1c, 0xf2, 0xbb, 0xd7,
  0xd8, 0x01, 0x1b, 0xf9, 0xf1, 0x7f, 0xb9, 0xf9, 0xe5, 0x15, 0x2c, 0xf7,
  0xdf, 0xdb, 0xdf, 0x13, 0xfd, 0xea, 0xb8, 0x23, 0x20, 0xff, 0x10, 0xdc,
  0x1c, 0xf3, 0xec, 0x0f, 0xfa, 0xf4, 0x09, 0xee, 0xfb, 0x06, 0xf9, 0x2b,
  0xda, 0xf5, 0xbe, 0xe1, 0xec, 0xe0, 0x17, 0xb8, 0xc6, 0xff, 0x03, 0x04,
  0x38, 0xef, 0x5c, 0xf7, 0xce, 0x00, 0x16, 0xde, 0x12, 0x12, 0x2d, 0x23,
  0x45, 0xa1, 0x25, 0xf5, 0xc8, 0x06, 0x24, 0x19, 0x04, 0xe0, 0x16, 0x34,
  0xd3, 0x12, 0xf3, 0xd5, 0xd2, 0x06, 0xd1, 0x34, 0x1a, 0xef, 0x15, 0xa6,
  0x0f, 0x3d, 0x28, 0x06, 0xfd, 0xf5, 0xb4, 0x33, 0xfe, 0xc4, 0x23, 0x1b,
  0x0d, 0x12, 0x5d, 0x91, 0x26, 0xc9, 0xd5, 0x4c, 0xcf, 0xfa, 0xad, 0x16,
  0x0c, 0x45, 0x06, 0xe9, 0x08, 0x9d, 0x00, 0xbf, 0xe4, 0xf9, 0x9f, 0xfb,
  0x32, 0xde, 0xf0, 0x01, 0x22, 0xe5, 0xb3, 0xf6, 0xe6, 0x1e, 0x64, 0xf9,
  0x45, 0x3d, 0xdc, 0x22, 0xef, 0xe1, 0x1a, 0x2d, 0xd1, 0x61, 0xfe, 0x18,
  0xca, 0x4d, 0xd3, 0x0e, 0x01, 0x22, 0x14, 0xe3, 0x1c, 0x09, 0xf5, 0x5b,
  0x3d, 0xd2, 0xde, 0xd8, 0x53, 0x02, 0x0f, 0xf0, 0xaa, 0xdd, 0x60, 0x0b,
  0xd2, 0x05, 0x46, 0x0e, 0xfd, 0x1a, 0x11, 0xf2, 0xe3, 0xfd, 0x23, 0xb8,
  0xb4, 0x3d, 0x0a, 0x01, 0x0b, 0xe4, 0xf9, 0x30, 0x47, 0x05, 0xce, 0xf4,
  0x1d, 0x38, 0xfa, 0xfe, 0xb1, 0xd1, 0xfd, 0x38, 0x81, 0xdd, 0xda, 0xa5,
  0xb6, 0xe3, 0x1e, 0xf0, 0x24, 0x02, 0xd9, 0xce, 0x36, 0x88, 0x1b, 0x5b,
  0xcb, 0xc4, 0x16, 0x14, 0x29, 0xf1, 0x1f, 0x53, 0xbe, 0xec, 0x04, 0x2b,
  0xe0, 0xbc, 0xe4, 0x06, 0xe0, 0x37, 0xe9, 0x04, 0xf9, 0x2e, 0xdf, 0xd1,
  0x16, 0xc5, 0xfb, 0x28, 0xca, 0xe5, 0x3b, 0xd4, 0xf8, 0xdd, 0x06, 0xf3,
  0x3d, 0xd7, 0xef, 0x4d, 0x14, 0xdb, 0xb1, 0x0e, 0xc3, 0xcd, 0xe2, 0xfb,
  0xea, 0xef, 0xe9, 0xd5, 0xf4, 0x21, 0x06, 0xcc, 0x3a, 0x47, 0x25, 0x13,
  0xe8, 0x81, 0xe6, 0xfb, 0xfe, 0xd5, 0x94, 0x60, 0x48, 0xd7, 0x28, 0x4a,
  0x12, 0x18, 0x1d, 0x52, 0x35, 0xda, 0xfd, 0x35, 0x07, 0x24, 0x13, 0xd6,
  0x11, 0xf6, 0x1e, 0x17, 0x3c, 0xf2, 0xbc, 0xbd, 0xf6, 0x18, 0x16, 0xcc,
  0x9b, 0xb5, 0xe2, 0xfd, 0x55, 0x2c, 0x26, 0x68, 0xb3, 0x33, 0x62, 0xb6,
  0xfc, 0xc6, 0x15, 0xd5, 0xfd, 0x20, 0x17, 0xf8, 0x17, 0xd0, 0xf0, 0x1a,
  0xf4, 0x15, 0x87, 0xa8, 0xd2, 0xb0, 0xfb, 0x0f, 0xd6, 0xf1, 0xb9, 0x26,
  0xe5, 0xd9, 0xce, 0x16, 0xe6, 0xbf, 0xc7, 0x1b, 0xde, 0xd5, 0xff, 0x1f,
  0xfa, 0xc6, 0xec, 0xeb, 0xd0, 0x33, 0xea, 0xfe, 0xdc, 0x0b, 0x4c, 0xdd,
  0xee, 0xe2, 0xec, 0xfb, 0x09, 0x13, 0xf8, 0x5e, 0x04, 0x0b, 0x03, 0xff,
  0xf6, 0xfe, 0x9e, 0x0f, 0x0f, 0xf5, 0x0b, 0x2e, 0xd4, 0xfd, 0x0f, 0xf2,
  0x12, 0xe9, 0xce, 0xf0, 0x0b, 0x15, 0x2d, 0x4b, 0x25, 0x0d, 0x1c, 0x16,
  0x3b, 0xff, 0x27, 0x03, 0x18, 0x23, 0xd8, 0x05, 0x10, 0x2b, 0x7f, 0x04,
  0xf4, 0x19, 0x0f, 0x1d, 0x0d, 0x00, 0xd6, 0xf1, 0x10, 0xd9, 0x22, 0x0b,
  0xfd, 0x29, 0xf6, 0xd3, 0x11, 0x0a, 0x06, 0xd6, 0x2c, 0x06, 0x3a, 0xf2,
  0xbe, 0xf0, 0xd7, 0x98, 0xef, 0xf2, 0xd9, 0xe6, 0x01, 0x00, 0xef, 0x12,
  0xb5, 0xd3, 0x19, 0xf9, 0xee, 0xec, 0xbc, 0xd5, 0x01, 0x0c, 0xcb, 0x07,
  0xcf, 0xdc, 0x07, 0x29, 0xc8, 0x0d, 0x13, 0x34, 0xa7, 0x00, 0xd9, 0xea,
  0xf3, 0xa8, 0xdc, 0x0c, 0x21, 0xf6, 0x16, 0x0a, 0xe5, 0xc1, 0xd1, 0x4a,
  0x19, 0xbc, 0xe1, 0xc5, 0x2a, 0x98, 0x5c, 0x3c, 0xc2, 0xea, 0xe6, 0x0d,
  0xfb, 0xfc, 0x23, 0xa0, 0xf4, 0xb2, 0x34, 0xf3, 0xc0, 0x27, 0x1a, 0x05,
  0x0f, 0x4d, 0xfa, 0xb6, 0x1e, 0x33, 0xcd, 0xfc, 0xf0, 0x0b, 0x2d, 0x53,
  0x16, 0x11, 0x10, 0xf4, 0xc3, 0xad, 0xe4, 0xf2, 0x0b, 0x27, 0x03, 0xe4,
  0x2f, 0x2c, 0xf0, 0xfa, 0xdf, 0x24, 0x4c, 0x31, 0x38, 0xd4, 0xfc, 0x3b,
  0xdc, 0x17, 0xdf, 0x31, 0xec, 0x10, 0xf9, 0x0a, 0x0e, 0xe3, 0xd3, 0xc5,
  0xf7, 0xfb, 0xfa, 0x23, 0x02, 0x14, 0x23, 0xec, 0x90, 0x39, 0xe9, 0x2b,
  0xe3, 0x12, 0x0f, 0x38, 0xb5, 0x38, 0xd2, 0xed, 0xd4, 0xc8, 0x1e, 0x06,
  0x66, 0x04, 0x02, 0x1a, 0xe8, 0x27, 0x12, 0xff, 0x9e, 0xc5, 0xd4, 0x0c,
  0xfb, 0x2e, 0xf5, 0xe2, 0x2d, 0xe3, 0xe7, 0x0d, 0x2d, 0x0d, 0x20, 0x0d,
  0x11, 0x81, 0xdf, 0xe4, 0x02, 0x12, 0xca, 0xfb, 0x58, 0xfd, 0xe3, 0x04,
  0xfc, 0x05, 0x21, 0xe5, 0xeb, 0xab, 0x1a, 0xd8, 0xf0, 0x2d, 0xee, 0x36,
  0xaf, 0x06, 0x12, 0x38, 0x11, 0xed, 0x2f, 0xce, 0x14, 0x17, 0x0b, 0xfa,
  0xf6, 0xd0, 0x2c, 0x00, 0xd4, 0xfd, 0xdc, 0x00, 0xed, 0xeb, 0x78, 0x16,
  0xe9, 0x17, 0x0e, 0x0d, 0xfc, 0xb1, 0x0c, 0x43, 0x94, 0x0e, 0x35, 0xce,
  0xef, 0x16, 0xc8, 0xf3, 0x0f, 0xe3, 0xf8, 0xce, 0xd6, 0xd5, 0x04, 0x20,
  0xdf, 0x3a, 0x14, 0xfd, 0x1e, 0xcf, 0x97, 0xf1, 0x13, 0x09, 0xcd, 0x3a,
  0x08, 0x1f, 0xc3, 0xe7, 0xdc, 0x0c, 0x24, 0x81, 0xfa, 0xec, 0xe0, 0x26,
  0x1c, 0x13, 0xf1, 0x30, 0xde, 0xea, 0x19, 0xc0, 0x3b, 0xe0, 0x28, 0x3f,
  0x01, 0x15, 0xb0, 0xc4, 0xcd, 0x01, 0x0e, 0x31, 0xf9, 0x19, 0xef, 0x01,
  0xf4, 0xda, 0x16, 0x16, 0x1b, 0x17, 0x23, 0x27, 0xf4, 0x29, 0xef, 0x0a,
  0x21, 0x2c, 0x27, 0x1a, 0x1e, 0xd7, 0x17, 0xe9, 0xf0, 0xdf, 0xc7, 0x0a,
  0x37, 0xcf, 0xf3, 0xd1, 0x09, 0x16, 0xe5, 0xeb, 0xf0, 0xdb, 0x1b, 0x35,
  0x04, 0x01, 0x2f, 0xec, 0x10, 0xf4, 0x08, 0x14, 0xef, 0x07, 0x02, 0x14,
  0xf4, 0x1d, 0x2a, 0xbd, 0x16, 0x2e, 0xf3, 0xd9, 0xed, 0x5f, 0x3a, 0x10,
  0x19, 0x33, 0xf4, 0x13, 0xd9, 0xf9, 0x20, 0xfa, 0x13, 0xfe, 0x3a, 0xe0,
  0xdf, 0x06, 0x19, 0x17, 0x26, 0x81, 0xc2, 0xf2, 0xf7, 0xfb, 0x07, 0xbc,
  0x20, 0x01, 0xb5, 0x24, 0xfe, 0xfc, 0x1a, 0x1d, 0xdc, 0xea, 0xfd, 0xe2,
  0x1f, 0xd4, 0xf4, 0xe4, 0x12, 0x05, 0xaf, 0xe8, 0xf2, 0xeb, 0x16, 0xe4,
  0x10, 0xdd, 0x21, 0xd1, 0xd8, 0xe3, 0x27, 0x63, 0x2b, 0xf2, 0x11, 0xa3,
  0xe4, 0x3d, 0xfc, 0xea, 0xde, 0x0c, 0xe8, 0xf0, 0x42, 0x2b, 0x18, 0x23,
  0x2c, 0x4a, 0xe9, 0xf6, 0xe6, 0x09, 0x27, 0xc5, 0x09, 0xee, 0x23, 0xda,
  0x00, 0xf3, 0x33, 0x0b, 0x33, 0x44, 0x59, 0xe9, 0x32, 0xe2, 0x28, 0xef,
  0x43, 0xe4, 0xd1, 0xe5, 0xfa, 0xbf, 0x31, 0xcf, 0xcf, 0xd5, 0x10, 0x4e,
  0x16, 0xe3, 0xc9, 0x19, 0xf4, 0xf4, 0xd4, 0xff, 0x03, 0x07, 0xf0, 0x1c,
  0x08, 0x9c, 0xce, 0xef, 0xef, 0xd6, 0xf6, 0xfc, 0x05, 0xe6, 0x1b, 0x37,
  0xf7, 0xb4, 0xbe, 0x12, 0xc3, 0xb0, 0x14, 0x13, 0x1f, 0xd8, 0xdf, 0x4f,
  0xe5, 0x6e, 0xb5, 0xf7, 0x3e, 0xe6, 0xe6, 0x14, 0x19, 0xd2, 0x7a, 0xc3,
  0x03, 0xcb, 0xf7, 0x21, 0x36, 0x24, 0x11, 0x59, 0x81, 0x00, 0xa8, 0x1a,
  0xdb, 0xd1, 0xed, 0xd9, 0xf8, 0x38, 0xcf, 0x5b, 0x3c, 0xf0, 0xdb, 0x31,
  0x38, 0x09, 0xeb, 0x01, 0x2c, 0xdb, 0xf8, 0x11, 0x09, 0x0c, 0x15, 0x08,
  0xef, 0xdf, 0xf8, 0xd0, 0x2c, 0x2a, 0x0b, 0x19, 0x26, 0x22, 0xe8, 0x3e,
  0x1a, 0xf0, 0x25, 0x07, 0xf6, 0xc3, 0x37, 0xef, 0x17, 0xec, 0xf3, 0x25,
  0xeb, 0x41, 0x95, 0xbf, 0x98, 0xe2, 0xab, 0xc6, 0x01, 0xee, 0xf9, 0x10,
  0xac, 0xcf, 0xe2, 0xdb, 0x0a, 0x2d, 0x0e, 0xe5, 0xee, 0x18, 0xf2, 0x08,
  0x15, 0x26, 0xbd, 0xfb, 0xbe, 0x0a, 0x21, 0x12, 0xfa, 0x36, 0x48, 0x0c,
  0xe6, 0x45, 0x0c, 0x24, 0xd5, 0x36, 0xe9, 0x0f, 0xbb, 0xb6, 0x01, 0xb4,
  0xef, 0xc2, 0xe6, 0xcc, 0xcb, 0x73, 0x20, 0xec, 0x38, 0x19, 0x0f, 0xf8,
  0xe0, 0xeb, 0xff, 0xff, 0xe4, 0xeb, 0xff, 0xff, 0x6a, 0xfe, 0xff, 0xff,
  0x04, 0x00, 0x00, 0x00, 0x40, 0x00, 0x00, 0x00, 0x47, 0xff, 0xff, 0xff,
  0x11, 0xfc, 0xff, 0xff, 0x7b, 0x09, 0x00, 0x00, 0x7f, 0x01, 0x00, 0x00,
  0x4a, 0xf3, 0xff, 0xff, 0xbe, 0xef, 0xff, 0xff, 0x28, 0x06, 0x00, 0x00,
  0x37, 0xfe, 0xff, 0xff, 0x44, 0xf8, 0xff, 0xff, 0xca, 0x01, 0x00, 0x00,
  0x55, 0x05, 0x00, 0x00, 0xb1, 0xfe, 0xff, 0xff, 0x82, 0xf4, 0xff, 0xff,
  0x02, 0x03, 0x00, 0x00, 0x32, 0x07, 0x00, 0x00, 0x16, 0x07, 0x00, 0x00,
  0xb6, 0xfe, 0xff, 0xff, 0x04, 0x00, 0x00, 0x00, 0x90, 0x00, 0x00, 0x00,
  0x10, 0xef, 0xff, 0x30, 0x2f, 0xaa, 0x16, 0x4f, 0x81, 0xfd, 0x33, 0x95,
  0x47, 0x7f, 0x75, 0xac, 0x11, 0xcf, 0x3b, 0x43, 0x41, 0x81, 0x8f, 0x1f,
  0x8e, 0xc9, 0x19, 0x00, 0x72, 0xba, 0xed, 0xfb, 0x06, 0x7d, 0x81, 0xc9,
  0xaf, 0xc0, 0x57, 0x34, 0x08, 0x69, 0xc7, 0x7f, 0x56, 0x33, 0xd8, 0x85,
  0x14, 0x2f, 0x13, 0x07, 0x7f, 0x08, 0x73, 0xa3, 0x6d, 0xd7, 0x7f, 0xb6,
  0xbc, 0xb8, 0xba, 0x27, 0x02, 0x7f, 0xd7, 0xb3, 0x02, 0x8f, 0xbb, 0x70,
  0x00, 0x12, 0x5f, 0x81, 0x3b, 0xbb, 0x51, 0x3e, 0x13, 0x2d, 0xfa, 0xdb,
  0x0a, 0x31, 0x11, 0x0a, 0x08, 0x81, 0x36, 0xcb, 0x9c, 0xc0, 0x81, 0x25,
  0xe9, 0xd1, 0xf8, 0x3f, 0xec, 0x7f, 0xcb, 0xc2, 0xab, 0x0e, 0x22, 0x0e,
  0xd7, 0xa5, 0x0b, 0xda, 0xe4, 0x23, 0x7f, 0xd6, 0x61, 0xa7, 0x7f, 0xaa,
  0xe5, 0x26, 0x2a, 0xbd, 0xf5, 0x12, 0x2f, 0x02, 0x2f, 0x0c, 0x81, 0x8b,
  0x65, 0xcb, 0x11, 0x8b, 0x19, 0x08, 0xfe, 0x91, 0x7f, 0xc8, 0x0a, 0x32,
  0x52, 0xff, 0xff, 0xff, 0x04, 0x00, 0x00, 0x00, 0x08, 0x00, 0x00, 0x00,
  0xff, 0xff, 0xff, 0xff, 0x40, 0x02, 0x00, 0x00, 0xe4, 0xec, 0xff, 0xff,
  0xe8, 0xec, 0xff, 0xff, 0x0f, 0x00, 0x00, 0x00, 0x4d, 0x4c, 0x49, 0x52,
  0x20, 0x43, 0x6f, 0x6e, 0x76, 0x65, 0x72, 0x74, 0x65, 0x64, 0x2e, 0x00,
  0x01, 0x00, 0x00, 0x00, 0x14, 0x00, 0x00, 0x00, 0x00, 0x00, 0x0e, 0x00,
  0x18, 0x00, 0x14, 0x00, 0x10, 0x00, 0x0c, 0x00, 0x08, 0x00, 0x04, 0x00,
  0x0e, 0x00, 0x00, 0x00, 0x14, 0x00, 0x00, 0x00, 0x1c, 0x00, 0x00, 0x00,
  0x78, 0x02, 0x00, 0x00, 0x7c, 0x02, 0x00, 0x00, 0x80, 0x02, 0x00, 0x00,
  0x04, 0x00, 0x00, 0x00, 0x6d, 0x61, 0x69, 0x6e, 0x00, 0x00, 0x00, 0x00,
  0x09, 0x00, 0x00, 0x00, 0x14, 0x02, 0x00, 0x00, 0xb0, 0x01, 0x00, 0x00,
  0x60, 0x01, 0x00, 0x00, 0x1c, 0x01, 0x00, 0x00, 0xf4, 0x00, 0x00, 0x00,
  0xb0, 0x00, 0x00, 0x00, 0x78, 0x00, 0x00, 0x00, 0x40, 0x00, 0x00, 0x00,
  0x04, 0x00, 0x00, 0x00, 0x7e, 0xfe, 0xff, 0xff, 0x1c, 0x00, 0x00, 0x00,
  0x00, 0x00, 0x00, 0x09, 0x1c, 0x00, 0x00, 0x00, 0x20, 0x00, 0x00, 0x00,
  0x04, 0x00, 0x00, 0x00, 0x00, 0x00, 0x06, 0x00, 0x08, 0x00, 0x04, 0x00,
  0x06, 0x00, 0x00, 0x00, 0x00, 0x00, 0x80, 0x3f, 0x01, 0x00, 0x00, 0x00,
  0x14, 0x00, 0x00, 0x00, 0x01, 0x00, 0x00, 0x00, 0x13, 0x00, 0x00, 0x00,
  0xb6, 0xfe, 0xff, 0xff, 0x14, 0x00, 0x00, 0x00, 0x00, 0x00, 0x00, 0x08,
  0x10, 0x00, 0x00, 0x00, 0x14, 0x00, 0x00, 0x00, 0x03, 0x00, 0x00, 0x00,
  0xb4, 0xed, 0xff, 0xff, 0x01, 0x00, 0x00, 0x00, 0x13, 0x00, 0x00, 0x00,
  0x03, 0x00, 0x00, 0x00, 0x10, 0x00, 0x00, 0x00, 0x11, 0x00, 0x00, 0x00,
  0x12, 0x00, 0x00, 0x00, 0xea, 0xfe, 0xff, 0xff, 0x14, 0x00, 0x00, 0x00,
  0x00, 0x00, 0x00, 0x08, 0x10, 0x00, 0x00, 0x00, 0x14, 0x00, 0x00, 0x00,
  0x03, 0x00, 0x00, 0x00, 0xe8, 0xed, 0xff, 0xff, 0x01, 0x00, 0x00, 0x00,
  0x10, 0x00, 0x00, 0x00, 0x03, 0x00, 0x00, 0x00, 0x0d, 0x00, 0x00, 0x00,
  0x0e, 0x00, 0x00, 0x00, 0x0f, 0x00, 0x00, 0x00, 0x1e, 0xff, 0xff, 0xff,
  0x14, 0x00, 0x00, 0x00, 0x00, 0x00, 0x00, 0x08, 0x10, 0x00, 0x00, 0x00,
  0x14, 0x00, 0x00, 0x00, 0x03, 0x00, 0x00, 0x00, 0x1c, 0xee, 0xff, 0xff,
  0x01, 0x00, 0x00, 0x00, 0x0d, 0x00, 0x00, 0x00, 0x03, 0x00, 0x00, 0x00,
  0x0a, 0x00, 0x00, 0x00, 0x0b, 0x00, 0x00, 0x00, 0x0c, 0x00, 0x00, 0x00,
  0x00, 0x00, 0x0a, 0x00, 0x10, 0x00, 0x0c, 0x00, 0x08, 0x00, 0x04, 0x00,
  0x0a, 0x00, 0x00, 0x00, 0x0c, 0x00, 0x00, 0x00, 0x10, 0x00, 0x00, 0x00,
  0x02, 0x00, 0x00, 0x00, 0x01, 0x00, 0x00, 0x00, 0x0a, 0x00, 0x00, 0x00,
  0x02, 0x00, 0x00, 0x00, 0x09, 0x00, 0x00, 0x00, 0x01, 0x00, 0x00, 0x00,
  0x82, 0xff, 0xff, 0xff, 0x14, 0x00, 0x00, 0x00, 0x00, 0x00, 0x00, 0x05,
  0x24, 0x00, 0x00, 0x00, 0x28, 0x00, 0x00, 0x00, 0x01, 0x00, 0x00, 0x00,
  0x72, 0xff, 0xff, 0xff, 0x02, 0x00, 0x00, 0x00, 0x02, 0x00, 0x00, 0x00,
  0x02, 0x00, 0x00, 0x00, 0x02, 0x00, 0x00, 0x00, 0x00, 0x00, 0x00, 0x01,
  0x01, 0x00, 0x00, 0x00, 0x09, 0x00, 0x00, 0x00, 0x01, 0x00, 0x00, 0x00,
  0x08, 0x00, 0x00, 0x00, 0x62, 0xff, 0xff, 0xff, 0x10, 0x00, 0x00, 0x00,
  0x00, 0x00, 0x00, 0x01, 0x18, 0x00, 0x00, 0x00, 0x1c, 0x00, 0x00, 0x00,
  0x52, 0xff, 0xff, 0xff, 0x01, 0x00, 0x00, 0x00, 0x01, 0x00, 0x00, 0x00,
  0x00, 0x00, 0x00, 0x01, 0x01, 0x00, 0x00, 0x00, 0x08, 0x00, 0x00, 0x00,
  0x03, 0x00, 0x00, 0x00, 0x05, 0x00, 0x00, 0x00, 0x06, 0x00, 0x00, 0x00,
  0x07, 0x00, 0x00, 0x00, 0x00, 0x00, 0x0e, 0x00, 0x1a, 0x00, 0x14, 0x00,
  0x10, 0x00, 0x0c, 0x00, 0x0b, 0x00, 0x04, 0x00, 0x0e, 0x00, 0x00, 0x00,
  0x24, 0x00, 0x00, 0x00, 0x00, 0x00, 0x00, 0x05, 0x34, 0x00, 0x00, 0x00,
  0x38, 0x00, 0x00, 0x00, 0x01, 0x00, 0x00, 0x00, 0x00, 0x00, 0x0e, 0x00,
  0x18, 0x00, 0x17, 0x00, 0x10, 0x00, 0x0c, 0x00, 0x08, 0x00, 0x04, 0x00,
  0x0e, 0x00, 0x00, 0x00, 0x02, 0x00, 0x00, 0x00, 0x02, 0x00, 0x00, 0x00,
  0x02, 0x00, 0x00, 0x00, 0x02, 0x00, 0x00, 0x00, 0x00, 0x00, 0x00, 0x01,
  0x01, 0x00, 0x00, 0x00, 0x05, 0x00, 0x00, 0x00, 0x01, 0x00, 0x00, 0x00,
  0x04, 0x00, 0x00, 0x00, 0x00, 0x00, 0x0e, 0x00, 0x16, 0x00, 0x00, 0x00,
  0x10, 0x00, 0x0c, 0x00, 0x0b, 0x00, 0x04, 0x00, 0x0e, 0x00, 0x00, 0x00,
  0x1c, 0x00, 0x00, 0x00, 0x00, 0x00, 0x00, 0x01, 0x24, 0x00, 0x00, 0x00,
  0x28, 0x00, 0x00, 0x00, 0x00, 0x00, 0x0a, 0x00, 0x10, 0x00, 0x0f, 0x00,
  0x08, 0x00, 0x04, 0x00, 0x0a, 0x00, 0x00, 0x00, 0x01, 0x00, 0x00, 0x00,
  0x01, 0x00, 0x00, 0x00, 0x00, 0x00, 0x00, 0x01, 0x01, 0x00, 0x00, 0x00,
  0x04, 0x00, 0x00, 0x00, 0x03, 0x00, 0x00, 0x00, 0x00, 0x00, 0x00, 0x00,
  0x02, 0x00, 0x00, 0x00, 0x03, 0x00, 0x00, 0x00, 0x01, 0x00, 0x00, 0x00,
  0x14, 0x00, 0x00, 0x00, 0x01, 0x00, 0x00, 0x00, 0x00, 0x00, 0x00, 0x00,
  0x15, 0x00, 0x00, 0x00, 0xa8, 0x10, 0x00, 0x00, 0x30, 0x10, 0x00, 0x00,
  0x8c, 0x0e, 0x00, 0x00, 0x50, 0x0d, 0x00, 0x00, 0x24, 0x0c, 0x00, 0x00,
  0x80, 0x0b, 0x00, 0x00, 0xf4, 0x09, 0x00, 0x00, 0xb8, 0x08, 0x00, 0x00,
  0xbc, 0x07, 0x00, 0x00, 0x18, 0x07, 0x00, 0x00, 0x8c, 0x06, 0x00, 0x00,
  0xc8, 0x05, 0x00, 0x00, 0x3c, 0x05, 0x00, 0x00, 0x88, 0x04, 0x00, 0x00,
  0xc4, 0x03, 0x00, 0x00, 0x38, 0x03, 0x00, 0x00, 0x84, 0x02, 0x00, 0x00,
  0xc0, 0x01, 0x00, 0x00, 0x34, 0x01, 0x00, 0x00, 0x80, 0x00, 0x00, 0x00,
  0x04, 0x00, 0x00, 0x00, 0xc2, 0xef, 0xff, 0xff, 0x00, 0x00, 0x00, 0x01,
  0x18, 0x00, 0x00, 0x00, 0x20, 0x00, 0x00, 0x00, 0x3c, 0x00, 0x00, 0x00,
  0x15, 0x00, 0x00, 0x00, 0x00, 0x00, 0x00, 0x09, 0x50, 0x00, 0x00, 0x00,
  0x02, 0x00, 0x00, 0x00, 0xff, 0xff, 0xff, 0xff, 0x0b, 0x00, 0x00, 0x00,
  0xa4, 0xef, 0xff, 0xff, 0x08, 0x00, 0x00, 0x00, 0x10, 0x00, 0x00, 0x00,
  0x01, 0x00, 0x00, 0x00, 0x80, 0xff, 0xff, 0xff, 0xff, 0xff, 0xff, 0xff,
  0x01, 0x00, 0x00, 0x00, 0x00, 0x00, 0x80, 0x3b, 0x19, 0x00, 0x00, 0x00,
  0x53, 0x74, 0x61, 0x74, 0x65, 0x66, 0x75, 0x6c, 0x50, 0x61, 0x72, 0x74,
  0x69, 0x74, 0x69, 0x6f, 0x6e, 0x65, 0x64, 0x43, 0x61, 0x6c, 0x6c, 0x3a,
  0x30, 0x00, 0x00, 0x00, 0x02, 0x00, 0x00, 0x00, 0x01, 0x00, 0x00, 0x00,
  0x0b, 0x00, 0x00, 0x00, 0x3a, 0xf0, 0xff, 0xff, 0x00, 0x00, 0x00, 0x01,
  0x18, 0x00, 0x00, 0x00, 0x20, 0x00, 0x00, 0x00, 0x3c, 0x00, 0x00, 0x00,
  0x14, 0x00, 0x00, 0x00, 0x00, 0x00, 0x00, 0x09, 0x88, 0x00, 0x00, 0x00,
  0x02, 0x00, 0x00, 0x00, 0xff, 0xff, 0xff, 0xff, 0x0b, 0x00, 0x00, 0x00,
  0x1c, 0xf0, 0xff, 0xff, 0x08, 0x00, 0x00, 0x00, 0x10, 0x00, 0x00, 0x00,
  0x01, 0x00, 0x00, 0x00, 0x25, 0x00, 0x00, 0x00, 0x00, 0x00, 0x00, 0x00,
  0x01, 0x00, 0x00, 0x00, 0xfe, 0xbe, 0x8c, 0x3d, 0x52, 0x00, 0x00, 0x00,
  0x53, 0x69, 0x6e, 0x67, 0x6c, 0x65, 0x53, 0x74, 0x72, 0x65, 0x61, 0x6d,
  0x5f, 0x46, 0x6f, 0x76, 0x65, 0x61, 0x2f, 0x71, 0x75, 0x61, 0x6e, 0x74,
  0x5f, 0x64, 0x65, 0x6e, 0x73, 0x65, 0x5f, 0x31, 0x34, 0x2f, 0x4d, 0x61,
  0x74, 0x4d, 0x75, 0x6c, 0x3b, 0x53, 0x69, 0x6e, 0x67, 0x6c, 0x65, 0x53,
  0x74, 0x72, 0x65, 0x61, 0x6d, 0x5f, 0x46, 0x6f, 0x76, 0x65, 0x61, 0x2f,
  0x71, 0x75, 0x61, 0x6e, 0x74, 0x5f, 0x64, 0x65, 0x6e, 0x73, 0x65, 0x5f,
  0x31, 0x34, 0x2f, 0x42, 0x69, 0x61, 0x73, 0x41, 0x64, 0x64, 0x00, 0x00,
  0x02, 0x00, 0x00, 0x00, 0x01, 0x00, 0x00, 0x00, 0x0b, 0x00, 0x00, 0x00,
  0x5e, 0xf1, 0xff, 0xff, 0x00, 0x00, 0x00, 0x01, 0x14, 0x00, 0x00, 0x00,
  0x34, 0x00, 0x00, 0x00, 0x13, 0x00, 0x00, 0x00, 0x00, 0x00, 0x00, 0x02,
  0x68, 0x00, 0x00, 0x00, 0xbc, 0xf0, 0xff, 0xff, 0x08, 0x00, 0x00, 0x00,
  0x14, 0x00, 0x00, 0x00, 0x01, 0x00, 0x00, 0x00, 0x00, 0x00, 0x00, 0x00,
  0x00, 0x00, 0x00, 0x00, 0x00, 0x00, 0x00, 0x00, 0x01, 0x00, 0x00, 0x00,
  0xde, 0x3e, 0xa3, 0x39, 0x38, 0x00, 0x00, 0x00, 0x53, 0x69, 0x6e, 0x67,
  0x6c, 0x65, 0x53, 0x74, 0x72, 0x65, 0x61, 0x6d, 0x5f, 0x46, 0x6f, 0x76,
  0x65, 0x61, 0x2f, 0x71, 0x75, 0x61, 0x6e, 0x74, 0x5f, 0x64, 0x65, 0x6e,
  0x73, 0x65, 0x5f, 0x31, 0x34, 0x2f, 0x42, 0x69, 0x61, 0x73, 0x41, 0x64,
  0x64, 0x2f, 0x52, 0x65, 0x61, 0x64, 0x56, 0x61, 0x72, 0x69, 0x61, 0x62,
  0x6c, 0x65, 0x4f, 0x70, 0x00, 0x00, 0x00, 0x00, 0x01, 0x00, 0x00, 0x00,
  0x0b, 0x00, 0x00, 0x00, 0xe6, 0xf1, 0xff, 0xff, 0x00, 0x00, 0x00, 0x01,
  0x14, 0x00, 0x00, 0x00, 0x30, 0x00, 0x00, 0x00, 0x12, 0x00, 0x00, 0x00,
  0x00, 0x00, 0x00, 0x09, 0x9c, 0x00, 0x00, 0x00, 0x44, 0xf1, 0xff, 0xff,
  0x08, 0x00, 0x00, 0x00, 0x10, 0x00, 0x00, 0x00, 0x01, 0x00, 0x00, 0x00,
  0x00, 0x00, 0x00, 0x00, 0x00, 0x00, 0x00, 0x00, 0x01, 0x00, 0x00, 0x00,
  0x33, 0x1a, 0x02, 0x3c, 0x71, 0x00, 0x00, 0x00, 0x53, 0x69, 0x6e, 0x67,
  0x6c, 0x65, 0x53, 0x74, 0x72, 0x65, 0x61, 0x6d, 0x5f, 0x46, 0x6f, 0x76,
  0x65, 0x61, 0x2f, 0x71, 0x75, 0x61, 0x6e, 0x74, 0x5f, 0x64, 0x65, 0x6e,
  0x73, 0x65, 0x5f, 0x31, 0x34, 0x2f, 0x4d, 0x61, 0x74, 0x4d, 0x75, 0x6c,
  0x3b, 0x53, 0x69, 0x6e, 0x67, 0x6c, 0x65, 0x53, 0x74, 0x72, 0x65, 0x61,
  0x6d, 0x5f, 0x46, 0x6f, 0x76, 0x65, 0x61, 0x2f, 0x71, 0x75, 0x61, 0x6e,
  0x74, 0x5f, 0x64, 0x65, 0x6e, 0x73, 0x65, 0x5f, 0x31, 0x34, 0x2f, 0x4c,
  0x61, 0x73, 0x74, 0x56, 0x61, 0x6c, 0x75, 0x65, 0x51, 0x75, 0x61, 0x6e,
  0x74, 0x2f, 0x46, 0x61, 0x6b, 0x65, 0x51, 0x75, 0x61, 0x6e, 0x74, 0x57,
  0x69, 0x74, 0x68, 0x4d, 0x69, 0x6e, 0x4d, 0x61, 0x78, 0x56, 0x61, 0x72,
  0x73, 0x00, 0x00, 0x00, 0x02, 0x00, 0x00, 0x00, 0x0b, 0x00, 0x00, 0x00,
  0x10, 0x00, 0x00, 0x00, 0x32, 0xf2, 0xff, 0xff, 0x00, 0x00, 0x00, 0x01,
  0x18, 0x00, 0x00, 0x00, 0x20, 0x00, 0x00, 0x00, 0x3c, 0x00, 0x00, 0x00,
  0x11, 0x00, 0x00, 0x00, 0x00, 0x00, 0x00, 0x09, 0x88, 0x00, 0x00, 0x00,
  0x02, 0x00, 0x00, 0x00, 0xff, 0xff, 0xff, 0xff, 0x10, 0x00, 0x00, 0x00,
  0x14, 0xf2, 0xff, 0xff, 0x08, 0x00, 0x00, 0x00, 0x10, 0x00, 0x00, 0x00,
  0x01, 0x00, 0x00, 0x00, 0xfe, 0xff, 0xff, 0xff, 0xff, 0xff, 0xff, 0xff,
  0x01, 0x00, 0x00, 0x00, 0x90, 0x9b, 0x20, 0x3d, 0x52, 0x00, 0x00, 0x00,
  0x53, 0x69, 0x6e, 0x67, 0x6c, 0x65, 0x53, 0x74, 0x72, 0x65, 0x61, 0x6d,
  0x5f, 0x46, 0x6f, 0x76, 0x65, 0x61, 0x2f, 0x71, 0x75, 0x61, 0x6e, 0x74,
  0x5f, 0x64, 0x65, 0x6e, 0x73, 0x65, 0x5f, 0x31, 0x33, 0x2f, 0x4d, 0x61,
  0x74, 0x4d, 0x75, 0x6c, 0x3b, 0x53, 0x69, 0x6e, 0x67, 0x6c, 0x65, 0x53,
  0x74, 0x72, 0x65, 0x61, 0x6d, 0x5f, 0x46, 0x6f, 0x76, 0x65, 0x61, 0x2f,
  0x71, 0x75, 0x61, 0x6e, 0x74, 0x5f, 0x64, 0x65, 0x6e, 0x73, 0x65, 0x5f,
  0x31, 0x33, 0x2f, 0x42, 0x69, 0x61, 0x73, 0x41, 0x64, 0x64, 0x00, 0x00,
  0x02, 0x00, 0x00, 0x00, 0x01, 0x00, 0x00, 0x00, 0x10, 0x00, 0x00, 0x00,
  0x56, 0xf3, 0xff, 0xff, 0x00, 0x00, 0x00, 0x01, 0x14, 0x00, 0x00, 0x00,
  0x34, 0x00, 0x00, 0x00, 0x10, 0x00, 0x00, 0x00, 0x00, 0x00, 0x00, 0x02,
  0x68, 0x00, 0x00, 0x00, 0xb4, 0xf2, 0xff, 0xff, 0x08, 0x00, 0x00, 0x00,
  0x14, 0x00, 0x00, 0x00, 0x01, 0x00, 0x00, 0x00, 0x00, 0x00, 0x00, 0x00,
  0x00, 0x00, 0x00, 0x00, 0x00, 0x00, 0x00, 0x00, 0x01, 0x00, 0x00, 0x00,
  0x30, 0x8b, 0x01, 0x39, 0x38, 0x00, 0x00, 0x00, 0x53, 0x69, 0x6e, 0x67,
  0x6c, 0x65, 0x53, 0x74, 0x72, 0x65, 0x61, 0x6d, 0x5f, 0x46, 0x6f, 0x76,
  0x65, 0x61, 0x2f, 0x71, 0x75, 0x61, 0x6e, 0x74, 0x5f, 0x64, 0x65, 0x6e,
  0x73, 0x65, 0x5f, 0x31, 0x33, 0x2f, 0x42, 0x69, 0x61, 0x73, 0x41, 0x64,
  0x64, 0x2f, 0x52, 0x65, 0x61, 0x64, 0x56, 0x61, 0x72, 0x69, 0x61, 0x62,
  0x6c, 0x65, 0x4f, 0x70, 0x00, 0x00, 0x00, 0x00, 0x01, 0x00, 0x00, 0x00,
  0x10, 0x00, 0x00, 0x00, 0xde, 0xf3, 0xff, 0xff, 0x00, 0x00, 0x00, 0x01,
  0x14, 0x00, 0x00, 0x00, 0x30, 0x00, 0x00, 0x00, 0x0f, 0x00, 0x00, 0x00,
  0x00, 0x00, 0x00, 0x09, 0x9c, 0x00, 0x00, 0x00, 0x3c, 0xf3, 0xff, 0xff,
  0x08, 0x00, 0x00, 0x00, 0x10, 0x00, 0x00, 0x00, 0x01, 0x00, 0x00, 0x00,
  0x00, 0x00, 0x00, 0x00, 0x00, 0x00, 0x00, 0x00, 0x01, 0x00, 0x00, 0x00,
  0x26, 0x7e, 0x1e, 0x3c, 0x71, 0x00, 0x00, 0x00, 0x53, 0x69, 0x6e, 0x67,
  0x6c, 0x65, 0x53, 0x74, 0x72, 0x65, 0x61, 0x6d, 0x5f, 0x46, 0x6f, 0x76,
  0x65, 0x61, 0x2f, 0x71, 0x75, 0x61, 0x6e, 0x74, 0x5f, 0x64, 0x65, 0x6e,
  0x73, 0x65, 0x5f, 0x31, 0x33, 0x2f, 0x4d, 0x61, 0x74, 0x4d, 0x75, 0x6c,
  0x3b, 0x53, 0x69, 0x6e, 0x67, 0x6c, 0x65, 0x53, 0x74, 0x72, 0x65, 0x61,
  0x6d, 0x5f, 0x46, 0x6f, 0x76, 0x65, 0x61, 0x2f, 0x71, 0x75, 0x61, 0x6e,
  0x74, 0x5f, 0x64, 0x65, 0x6e, 0x73, 0x65, 0x5f, 0x31, 0x33, 0x2f, 0x4c,
  0x61, 0x73, 0x74, 0x56, 0x61, 0x6c, 0x75, 0x65, 0x51, 0x75, 0x61, 0x6e,
  0x74, 0x2f, 0x46, 0x61, 0x6b, 0x65, 0x51, 0x75, 0x61, 0x6e, 0x74, 0x57,
  0x69, 0x74, 0x68, 0x4d, 0x69, 0x6e, 0x4d, 0x61, 0x78, 0x56, 0x61, 0x72,
  0x73, 0x00, 0x00, 0x00, 0x02, 0x00, 0x00, 0x00, 0x10, 0x00, 0x00, 0x00,
  0x0a, 0x00, 0x00, 0x00, 0x2a, 0xf4, 0xff, 0xff, 0x00, 0x00, 0x00, 0x01,
  0x18, 0x00, 0x00, 0x00, 0x20, 0x00, 0x00, 0x00, 0x3c, 0x00, 0x00, 0x00,
  0x0e, 0x00, 0x00, 0x00, 0x00, 0x00, 0x00, 0x09, 0x88, 0x00, 0x00, 0x00,
  0x02, 0x00, 0x00, 0x00, 0xff, 0xff, 0xff, 0xff, 0x0a, 0x00, 0x00, 0x00,
  0x0c, 0xf4, 0xff, 0xff, 0x08, 0x00, 0x00, 0x00, 0x10, 0x00, 0x00, 0x00,
  0x01, 0x00, 0x00, 0x00, 0x02, 0x00, 0x00, 0x00, 0x00, 0x00, 0x00, 0x00,
  0x01, 0x00, 0x00, 0x00, 0xb3, 0x3d, 0x51, 0x3c, 0x52, 0x00, 0x00, 0x00,
  0x53, 0x69, 0x6e, 0x67, 0x6c, 0x65, 0x53, 0x74, 0x72, 0x65, 0x61, 0x6d,
  0x5f, 0x46, 0x6f, 0x76, 0x65, 0x61, 0x2f, 0x71, 0x75, 0x61, 0x6e, 0x74,
  0x5f, 0x64, 0x65, 0x6e, 0x73, 0x65, 0x5f, 0x31, 0x32, 0x2f, 0x4d, 0x61,
  0x74, 0x4d, 0x75, 0x6c, 0x3b, 0x53, 0x69, 0x6e, 0x67, 0x6c, 0x65, 0x53,
  0x74, 0x72, 0x65, 0x61, 0x6d, 0x5f, 0x46, 0x6f, 0x76, 0x65, 0x61, 0x2f,
  0x71, 0x75, 0x61, 0x6e, 0x74, 0x5f, 0x64, 0x65, 0x6e, 0x73, 0x65, 0x5f,
  0x31, 0x32, 0x2f, 0x42, 0x69, 0x61, 0x73, 0x41, 0x64, 0x64, 0x00, 0x00,
  0x02, 0x00, 0x00, 0x00, 0x01, 0x00, 0x00, 0x00, 0x0a, 0x00, 0x00, 0x00,
  0x4e, 0xf5, 0xff, 0xff, 0x00, 0x00, 0x00, 0x01, 0x14, 0x00, 0x00, 0x00,
  0x34, 0x00, 0x00, 0x00, 0x0d, 0x00, 0x00, 0x00, 0x00, 0x00, 0x00, 0x02,
  0x68, 0x00, 0x00, 0x00, 0xac, 0xf4, 0xff, 0xff, 0x08, 0x00, 0x00, 0x00,
  0x14, 0x00, 0x00, 0x00, 0x01, 0x00, 0x00, 0x00, 0x00, 0x00, 0x00, 0x00,
  0x00, 0x00, 0x00, 0x00, 0x00, 0x00, 0x00, 0x00, 0x01, 0x00, 0x00, 0x00,
  0xb0, 0xc8, 0x5a, 0x38, 0x38, 0x00, 0x00, 0x00, 0x53, 0x69, 0x6e, 0x67,
  0x6c, 0x65, 0x53, 0x74, 0x72, 0x65, 0x61, 0x6d, 0x5f, 0x46, 0x6f, 0x76,
  0x65, 0x61, 0x2f, 0x71, 0x75, 0x61, 0x6e, 0x74, 0x5f, 0x64, 0x65, 0x6e,
  0x73, 0x65, 0x5f, 0x31, 0x32, 0x2f, 0x42, 0x69, 0x61, 0x73, 0x41, 0x64,
  0x64, 0x2f, 0x52, 0x65, 0x61, 0x64, 0x56, 0x61, 0x72, 0x69, 0x61, 0x62,
  0x6c, 0x65, 0x4f, 0x70, 0x00, 0x00, 0x00, 0x00, 0x01, 0x00, 0x00, 0x00,
  0x0a, 0x00, 0x00, 0x00, 0xd6, 0xf5, 0xff, 0xff, 0x00, 0x00, 0x00, 0x01,
  0x14, 0x00, 0x00, 0x00, 0x30, 0x00, 0x00, 0x00, 0x0c, 0x00, 0x00, 0x00,
  0x00, 0x00, 0x00, 0x09, 0x9c, 0x00, 0x00, 0x00, 0x34, 0xf5, 0xff, 0xff,
  0x08, 0x00, 0x00, 0x00, 0x10, 0x00, 0x00, 0x00, 0x01, 0x00, 0x00, 0x00,
  0x00, 0x00, 0x00, 0x00, 0x00, 0x00, 0x00, 0x00, 0x01, 0x00, 0x00, 0x00,
  0xe6, 0x43, 0x8d, 0x3b, 0x71, 0x00, 0x00, 0x00, 0x53, 0x69, 0x6e, 0x67,
  0x6c, 0x65, 0x53, 0x74, 0x72, 0x65, 0x61, 0x6d, 0x5f, 0x46, 0x6f, 0x76,
  0x65, 0x61, 0x2f, 0x71, 0x75, 0x61, 0x6e, 0x74, 0x5f, 0x64, 0x65, 0x6e,
  0x73, 0x65, 0x5f, 0x31, 0x32, 0x2f, 0x4d, 0x61, 0x74, 0x4d, 0x75, 0x6c,
  0x3b, 0x53, 0x69, 0x6e, 0x67, 0x6c, 0x65, 0x53, 0x74, 0x72, 0x65, 0x61,
  0x6d, 0x5f, 0x46, 0x6f, 0x76, 0x65, 0x61, 0x2f, 0x71, 0x75, 0x61, 0x6e,
  0x74, 0x5f, 0x64, 0x65, 0x6e, 0x73, 0x65, 0x5f, 0x31, 0x32, 0x2f, 0x4c,
  0x61, 0x73, 0x74, 0x56, 0x61, 0x6c, 0x75, 0x65, 0x51, 0x75, 0x61, 0x6e,
  0x74, 0x2f, 0x46, 0x61, 0x6b, 0x65, 0x51, 0x75, 0x61, 0x6e, 0x74, 0x57,
  0x69, 0x74, 0x68, 0x4d, 0x69, 0x6e, 0x4d, 0x61, 0x78, 0x56, 0x61, 0x72,
  0x73, 0x00, 0x00, 0x00, 0x02, 0x00, 0x00, 0x00, 0x0a, 0x00, 0x00, 0x00,
  0x40, 0x02, 0x00, 0x00, 0x22, 0xf6, 0xff, 0xff, 0x00, 0x00, 0x00, 0x01,
  0x18, 0x00, 0x00, 0x00, 0x20, 0x00, 0x00, 0x00, 0x3c, 0x00, 0x00, 0x00,
  0x0b, 0x00, 0x00, 0x00, 0x00, 0x00, 0x00, 0x09, 0x60, 0x00, 0x00, 0x00,
  0x02, 0x00, 0x00, 0x00, 0xff, 0xff, 0xff, 0xff, 0x40, 0x02, 0x00, 0x00,
  0x04, 0xf6, 0xff, 0xff, 0x08, 0x00, 0x00, 0x00, 0x10, 0x00, 0x00, 0x00,
  0x01, 0x00, 0x00, 0x00, 0x2b, 0x00, 0x00, 0x00, 0x00, 0x00, 0x00, 0x00,
  0x01, 0x00, 0x00, 0x00, 0x4e, 0x3d, 0x46, 0x3c, 0x2a, 0x00, 0x00, 0x00,
  0x53, 0x69, 0x6e, 0x67, 0x6c, 0x65, 0x53, 0x74, 0x72, 0x65, 0x61, 0x6d,
  0x5f, 0x46, 0x6f, 0x76, 0x65, 0x61, 0x2f, 0x71, 0x75, 0x61, 0x6e, 0x74,
  0x5f, 0x66, 0x6c, 0x61, 0x74, 0x74, 0x65, 0x6e, 0x5f, 0x34, 0x2f, 0x52,
  0x65, 0x73, 0x68, 0x61, 0x70, 0x65, 0x00, 0x00, 0x02, 0x00, 0x00, 0x00,
  0x01, 0x00, 0x00, 0x00, 0x40, 0x02, 0x00, 0x00, 0xaa, 0xf6, 0xff, 0xff,
  0x00, 0x00, 0x00, 0x01, 0x18, 0x00, 0x00, 0x00, 0x28, 0x00, 0x00, 0x00,
  0x44, 0x00, 0x00, 0x00, 0x0a, 0x00, 0x00, 0x00, 0x00, 0x00, 0x00, 0x09,
  0x70, 0x00, 0x00, 0x00, 0x04, 0x00, 0x00, 0x00, 0xff, 0xff, 0xff, 0xff,
  0x06, 0x00, 0x00, 0x00, 0x06, 0x00, 0x00, 0x00, 0x10, 0x00, 0x00, 0x00,
  0x94, 0xf6, 0xff, 0xff, 0x08, 0x00, 0x00, 0x00, 0x10, 0x00, 0x00, 0x00,
  0x01, 0x00, 0x00, 0x00, 0x2b, 0x00, 0x00, 0x00, 0x00, 0x00, 0x00, 0x00,
  0x01, 0x00, 0x00, 0x00, 0x4e, 0x3d, 0x46, 0x3c, 0x30, 0x00, 0x00, 0x00,
  0x53, 0x69, 0x6e, 0x67, 0x6c, 0x65, 0x53, 0x74, 0x72, 0x65, 0x61, 0x6d,
  0x5f, 0x46, 0x6f, 0x76, 0x65, 0x61, 0x2f, 0x71, 0x75, 0x61, 0x6e, 0x74,
  0x5f, 0x6d, 0x61, 0x78, 0x5f, 0x70, 0x6f, 0x6f, 0x6c, 0x69, 0x6e, 0x67,
  0x32, 0x64, 0x5f, 0x39, 0x2f, 0x4d, 0x61, 0x78, 0x50, 0x6f, 0x6f, 0x6c,
  0x00, 0x00, 0x00, 0x00, 0x04, 0x00, 0x00, 0x00, 0x01, 0x00, 0x00, 0x00,
  0x06, 0x00, 0x00, 0x00, 0x06, 0x00, 0x00, 0x00, 0x10, 0x00, 0x00, 0x00,
  0x4a, 0xf7, 0xff, 0xff, 0x00, 0x00, 0x00, 0x01, 0x18, 0x00, 0x00, 0x00,
  0x28, 0x00, 0x00, 0x00, 0x44, 0x00, 0x00, 0x00, 0x09, 0x00, 0x00, 0x00,
  0x00, 0x00, 0x00, 0x09, 0xc8, 0x00, 0x00, 0x00, 0x04, 0x00, 0x00, 0x00,
  0xff, 0xff, 0xff, 0xff, 0x0d, 0x00, 0x00, 0x00, 0x0d, 0x00, 0x00, 0x00,
  0x10, 0x00, 0x00, 0x00, 0x34, 0xf7, 0xff, 0xff, 0x08, 0x00, 0x00, 0x00,
  0x10, 0x00, 0x00, 0x00, 0x01, 0x00, 0x00, 0x00, 0x2b, 0x00, 0x00, 0x00,
  0x00, 0x00, 0x00, 0x00, 0x01, 0x00, 0x00, 0x00, 0x4e, 0x3d, 0x46, 0x3c,
  0x8b, 0x00, 0x00, 0x00, 0x53, 0x69, 0x6e, 0x67, 0x6c, 0x65, 0x53, 0x74,
  0x72, 0x65, 0x61, 0x6d, 0x5f, 0x46, 0x6f, 0x76, 0x65, 0x61, 0x2f, 0x71,
  0x75, 0x61, 0x6e, 0x74, 0x5f, 0x63, 0x6f, 0x6e, 0x76, 0x32, 0x64, 0x5f,
  0x39, 0x2f, 0x42, 0x69, 0x61, 0x73, 0x41, 0x64, 0x64, 0x3b, 0x53, 0x69,
  0x6e, 0x67, 0x6c, 0x65, 0x53, 0x74, 0x72, 0x65, 0x61, 0x6d, 0x5f, 0x46,
  0x6f, 0x76, 0x65, 0x61, 0x2f, 0x71, 0x75, 0x61, 0x6e, 0x74, 0x5f, 0x63,
  0x6f, 0x6e, 0x76, 0x32, 0x64, 0x5f, 0x39, 0x2f, 0x43, 0x6f, 0x6e, 0x76,
  0x32, 0x44, 0x3b, 0x53, 0x69, 0x6e, 0x67, 0x6c, 0x65, 0x53, 0x74, 0x72,
  0x65, 0x61, 0x6d, 0x5f, 0x46, 0x6f, 0x76, 0x65, 0x61, 0x2f, 0x71, 0x75,
  0x61, 0x6e, 0x74, 0x5f, 0x63, 0x6f, 0x6e, 0x76, 0x32, 0x64, 0x5f, 0x39,
  0x2f, 0x42, 0x69, 0x61, 0x73, 0x41, 0x64, 0x64, 0x2f, 0x52, 0x65, 0x61,
  0x64, 0x56, 0x61, 0x72, 0x69, 0x61, 0x62, 0x6c, 0x65, 0x4f, 0x70, 0x00,
  0x04, 0x00, 0x00, 0x00, 0x01, 0x00, 0x00, 0x00, 0x0d, 0x00, 0x00, 0x00,
  0x0d, 0x00, 0x00, 0x00, 0x10, 0x00, 0x00, 0x00, 0xb6, 0xf8, 0xff, 0xff,
  0x00, 0x00, 0x00, 0x01, 0x14, 0x00, 0x00, 0x00, 0xe4, 0x00, 0x00, 0x00,
  0x08, 0x00, 0x00, 0x00, 0x00, 0x00, 0x00, 0x02, 0x18, 0x01, 0x00, 0x00,
  0x14, 0xf8, 0xff, 0xff, 0x08, 0x00, 0x00, 0x00, 0x88, 0x00, 0x00, 0x00,
  0x10, 0x00, 0x00, 0x00, 0x00, 0x00, 0x00, 0x00, 0x00, 0x00, 0x00, 0x00,
  0x00, 0x00, 0x00, 0x00, 0x00, 0x00, 0x00, 0x00, 0x00, 0x00, 0x00, 0x00,
  0x00, 0x00, 0x00, 0x00, 0x00, 0x00, 0x00, 0x00, 0x00, 0x00, 0x00, 0x00,
  0x00, 0x00, 0x00, 0x00, 0x00, 0x00, 0x00, 0x00, 0x00, 0x00, 0x00, 0x00,
  0x00, 0x00, 0x00, 0x00, 0x00, 0x00, 0x00, 0x00, 0x00, 0x00, 0x00, 0x00,
  0x00, 0x00, 0x00, 0x00, 0x00, 0x00, 0x00, 0x00, 0x00, 0x00, 0x00, 0x00,
  0x00, 0x00, 0x00, 0x00, 0x00, 0x00, 0x00, 0x00, 0x00, 0x00, 0x00, 0x00,
  0x00, 0x00, 0x00, 0x00, 0x00, 0x00, 0x00, 0x00, 0x00, 0x00, 0x00, 0x00,
  0x00, 0x00, 0x00, 0x00, 0x00, 0x00, 0x00, 0x00, 0x00, 0x00, 0x00, 0x00,
  0x00, 0x00, 0x00, 0x00, 0x00, 0x00, 0x00, 0x00, 0x00, 0x00, 0x00, 0x00,
  0x00, 0x00, 0x00, 0x00, 0x00, 0x00, 0x00, 0x00, 0x00, 0x00, 0x00, 0x00,
  0x10, 0x00, 0x00, 0x00, 0x0a, 0x3e, 0x63, 0x38, 0x69, 0x4c, 0x78, 0x38,
  0x00, 0xfe, 0x61, 0x38, 0xd2, 0x0d, 0x7b, 0x38, 0x78, 0xac, 0x60, 0x38,
  0xd5, 0xd9, 0x75, 0x38, 0x62, 0x86, 0x3f, 0x38, 0xaa, 0x45, 0x6f, 0x38,
  0x6c, 0x97, 0x71, 0x38, 0x31, 0x22, 0x40, 0x38, 0x8a, 0xbe, 0x4c, 0x38,
  0x53, 0x6d, 0x8b, 0x38, 0x65, 0x97, 0x62, 0x38, 0xbf, 0x8a, 0xa6, 0x38,
  0x11, 0x4c, 0x79, 0x38, 0x0f, 0x2a, 0x4a, 0x38, 0x38, 0x00, 0x00, 0x00,
  0x53, 0x69, 0x6e, 0x67, 0x6c, 0x65, 0x53, 0x74, 0x72, 0x65, 0x61, 0x6d,
  0x5f, 0x46, 0x6f, 0x76, 0x65, 0x61, 0x2f, 0x71, 0x75, 0x61, 0x6e, 0x74,
  0x5f, 0x63, 0x6f, 0x6e, 0x76, 0x32, 0x64, 0x5f, 0x39, 0x2f, 0x42, 0x69,
  0x61, 0x73, 0x41, 0x64, 0x64, 0x2f, 0x52, 0x65, 0x61, 0x64, 0x56, 0x61,
  0x72, 0x69, 0x61, 0x62, 0x6c, 0x65, 0x4f, 0x70, 0x00, 0x00, 0x00, 0x00,
  0x01, 0x00, 0x00, 0x00, 0x10, 0x00, 0x00, 0x00, 0xee, 0xf9, 0xff, 0xff,
  0x00, 0x00, 0x00, 0x01, 0x14, 0x00, 0x00, 0x00, 0xe8, 0x00, 0x00, 0x00,
  0x07, 0x00, 0x00, 0x00, 0x00, 0x00, 0x00, 0x09, 0x5c, 0x01, 0x00, 0x00,
  0x4c, 0xf9, 0xff, 0xff, 0x08, 0x00, 0x00, 0x00, 0x8c, 0x00, 0x00, 0x00,
  0x10, 0x00, 0x00, 0x00, 0x00, 0x00, 0x00, 0x00, 0x00, 0x00, 0x00, 0x00,
  0x00, 0x00, 0x00, 0x00, 0x00, 0x00, 0x00, 0x00, 0x00, 0x00, 0x00, 0x00,
  0x00, 0x00, 0x00, 0x00, 0x00, 0x00, 0x00, 0x00, 0x00, 0x00, 0x00, 0x00,
  0x00, 0x00, 0x00, 0x00, 0x00, 0x00, 0x00, 0x00, 0x00, 0x00, 0x00, 0x00,
  0x00, 0x00, 0x00, 0x00, 0x00, 0x00, 0x00, 0x00, 0x00, 0x00, 0x00, 0x00,
  0x00, 0x00, 0x00, 0x00, 0x00, 0x00, 0x00, 0x00, 0x00, 0x00, 0x00, 0x00,
  0x00, 0x00, 0x00, 0x00, 0x00, 0x00, 0x00, 0x00, 0x00, 0x00, 0x00, 0x00,
  0x00, 0x00, 0x00, 0x00, 0x00, 0x00, 0x00, 0x00, 0x00, 0x00, 0x00, 0x00,
  0x00, 0x00, 0x00, 0x00, 0x00, 0x00, 0x00, 0x00, 0x00, 0x00, 0x00, 0x00,
  0x00, 0x00, 0x00, 0x00, 0x00, 0x00, 0x00, 0x00, 0x00, 0x00, 0x00, 0x00,
  0x00, 0x00, 0x00, 0x00, 0x00, 0x00, 0x00, 0x00, 0x00, 0x00, 0x00, 0x00,
  0x00, 0x00, 0x00, 0x00, 0x10, 0x00, 0x00, 0x00, 0x69, 0x19, 0x66, 0x3b,
  0x8c, 0x6b, 0x7b, 0x3b, 0x59, 0xd5, 0x64, 0x3b, 0xd4, 0x35, 0x7e, 0x3b,
  0x92, 0x7f, 0x63, 0x3b, 0x18, 0xf1, 0x78, 0x3b, 0xcd, 0xee, 0x41, 0x3b,
  0xc1, 0x47, 0x72, 0x3b, 0xfa, 0xa0, 0x74, 0x3b, 0x91, 0x8c, 0x42, 0x3b,
  0x80, 0x51, 0x4f, 0x3b, 0x10, 0x2e, 0x8d, 0x3b, 0xab, 0x70, 0x65, 0x3b,
  0xc2, 0xa2, 0xa8, 0x3b, 0x6c, 0x6e, 0x7c, 0x3b, 0xb7, 0xb4, 0x4c, 0x3b,
  0x7b, 0x00, 0x00, 0x00, 0x53, 0x69, 0x6e, 0x67, 0x6c, 0x65, 0x53, 0x74,
  0x72, 0x65, 0x61, 0x6d, 0x5f, 0x46, 0x6f, 0x76, 0x65, 0x61, 0x2f, 0x71,
  0x75, 0x61, 0x6e, 0x74, 0x5f, 0x63, 0x6f, 0x6e, 0x76, 0x32, 0x64, 0x5f,
  0x39, 0x2f, 0x43, 0x6f, 0x6e, 0x76, 0x32, 0x44, 0x3b, 0x53, 0x69, 0x6e,
  0x67, 0x6c, 0x65, 0x53, 0x74, 0x72, 0x65, 0x61, 0x6d, 0x5f, 0x46, 0x6f,
  0x76, 0x65, 0x61, 0x2f, 0x71, 0x75, 0x61, 0x6e, 0x74, 0x5f, 0x63, 0x6f,
  0x6e, 0x76, 0x32, 0x64, 0x5f, 0x39, 0x2f, 0x4c, 0x61, 0x73, 0x74, 0x56,
  0x61, 0x6c, 0x75, 0x65, 0x51, 0x75, 0x61, 0x6e, 0x74, 0x2f, 0x46, 0x61,
  0x6b, 0x65, 0x51, 0x75, 0x61, 0x6e, 0x74, 0x57, 0x69, 0x74, 0x68, 0x4d,
  0x69, 0x6e, 0x4d, 0x61, 0x78, 0x56, 0x61, 0x72, 0x73, 0x50, 0x65, 0x72,
  0x43, 0x68, 0x61, 0x6e, 0x6e, 0x65, 0x6c, 0x00, 0x04, 0x00, 0x00, 0x00,
  0x10, 0x00, 0x00, 0x00, 0x03, 0x00, 0x00, 0x00, 0x03, 0x00, 0x00, 0x00,
  0x10, 0x00, 0x00, 0x00, 0x02, 0xfb, 0xff, 0xff, 0x00, 0x00, 0x00, 0x01,
  0x18, 0x00, 0x00, 0x00, 0x28, 0x00, 0x00, 0x00, 0x44, 0x00, 0x00, 0x00,
  0x06, 0x00, 0x00, 0x00, 0x00, 0x00, 0x00, 0x09, 0x70, 0x00, 0x00, 0x00,
  0x04, 0x00, 0x00, 0x00, 0xff, 0xff, 0xff, 0xff, 0x0f, 0x00, 0x00, 0x00,
  0x0f, 0x00, 0x00, 0x00, 0x10, 0x00, 0x00, 0x00, 0xec, 0xfa, 0xff, 0xff,
  0x08, 0x00, 0x00, 0x00, 0x10, 0x00, 0x00, 0x00, 0x01, 0x00, 0x00, 0x00,
  0x05, 0x00, 0x00, 0x00, 0x00, 0x00, 0x00, 0x00, 0x01, 0x00, 0x00, 0x00,
  0x4e, 0xd2, 0x7c, 0x3c, 0x30, 0x00, 0x00, 0x00, 0x53, 0x69, 0x6e, 0x67,
  0x6c, 0x65, 0x53, 0x74, 0x72, 0x65, 0x61, 0x6d, 0x5f, 0x46, 0x6f, 0x76,
  0x65, 0x61, 0x2f, 0x71, 0x75, 0x61, 0x6e, 0x74, 0x5f, 0x6d, 0x61, 0x78,
  0x5f, 0x70, 0x6f, 0x6f, 0x6c, 0x69, 0x6e, 0x67, 0x32, 0x64, 0x5f, 0x38,
  0x2f, 0x4d, 0x61, 0x78, 0x50, 0x6f, 0x6f, 0x6c, 0x00, 0x00, 0x00, 0x00,
  0x04, 0x00, 0x00, 0x00, 0x01, 0x00, 0x00, 0x00, 0x0f, 0x00, 0x00, 0x00,
  0x0f, 0x00, 0x00, 0x00, 0x10, 0x00, 0x00, 0x00, 0xa2, 0xfb, 0xff, 0xff,
  0x00, 0x00, 0x00, 0x01, 0x18, 0x00, 0x00, 0x00, 0x28, 0x00, 0x00, 0x00,
  0x48, 0x00, 0x00, 0x00, 0x05, 0x00, 0x00, 0x00, 0x00, 0x00, 0x00, 0x09,
  0xf8, 0x00, 0x00, 0x00, 0x04, 0x00, 0x00, 0x00, 0xff, 0xff, 0xff, 0xff,
  0x1e, 0x00, 0x00, 0x00, 0x1e, 0x00, 0x00, 0x00, 0x10, 0x00, 0x00, 0x00,
  0x8c, 0xfb, 0xff, 0xff, 0x08, 0x00, 0x00, 0x00, 0x14, 0x00, 0x00, 0x00,
  0x01, 0x00, 0x00, 0x00, 0x05, 0x00, 0x00, 0x00, 0x00, 0x00, 0x00, 0x00,
  0x00, 0x00, 0x00, 0x00, 0x01, 0x00, 0x00, 0x00, 0x4e, 0xd2, 0x7c, 0x3c,
  0xb4, 0x00, 0x00, 0x00, 0x53, 0x69, 0x6e, 0x67, 0x6c, 0x65, 0x53, 0x74,
  0x72, 0x65, 0x61, 0x6d, 0x5f, 0x46, 0x6f, 0x76, 0x65, 0x61, 0x2f, 0x71,
  0x75, 0x61, 0x6e, 0x74, 0x5f, 0x63, 0x6f, 0x6e, 0x76, 0x32, 0x64, 0x5f,
  0x38, 0x2f, 0x42, 0x69, 0x61, 0x73, 0x41, 0x64, 0x64, 0x3b, 0x53, 0x69,
  0x6e, 0x67, 0x6c, 0x65, 0x53, 0x74, 0x72, 0x65, 0x61, 0x6d, 0x5f, 0x46,
  0x6f, 0x76, 0x65, 0x61, 0x2f, 0x71, 0x75, 0x61, 0x6e, 0x74, 0x5f, 0x63,
  0x6f, 0x6e, 0x76, 0x32, 0x64, 0x5f, 0x39, 0x2f, 0x43, 0x6f, 0x6e, 0x76,
  0x32, 0x44, 0x3b, 0x53, 0x69, 0x6e, 0x67, 0x6c, 0x65, 0x53, 0x74, 0x72,
  0x65, 0x61, 0x6d, 0x5f, 0x46, 0x6f, 0x76, 0x65, 0x61, 0x2f, 0x71, 0x75,
  0x61, 0x6e, 0x74, 0x5f, 0x63, 0x6f, 0x6e, 0x76, 0x32, 0x64, 0x5f, 0x38,
  0x2f, 0x43, 0x6f, 0x6e, 0x76, 0x32, 0x44, 0x3b, 0x53, 0x69, 0x6e, 0x67,
  0x6c, 0x65, 0x53, 0x74, 0x72, 0x65, 0x61, 0x6d, 0x5f, 0x46, 0x6f, 0x76,
  0x65, 0x61, 0x2f, 0x71, 0x75, 0x61, 0x6e, 0x74, 0x5f, 0x63, 0x6f, 0x6e,
  0x76, 0x32, 0x64, 0x5f, 0x38, 0x2f, 0x42, 0x69, 0x61, 0x73, 0x41, 0x64,
  0x64, 0x2f, 0x52, 0x65, 0x61, 0x64, 0x56, 0x61, 0x72, 0x69, 0x61, 0x62,
  0x6c, 0x65, 0x4f, 0x70, 0x00, 0x00, 0x00, 0x00, 0x04, 0x00, 0x00, 0x00,
  0x01, 0x00, 0x00, 0x00, 0x1e, 0x00, 0x00, 0x00, 0x1e, 0x00, 0x00, 0x00,
  0x10, 0x00, 0x00, 0x00, 0x3e, 0xfd, 0xff, 0xff, 0x00, 0x00, 0x00, 0x01,
  0x14, 0x00, 0x00, 0x00, 0xe4, 0x00, 0x00, 0x00, 0x04, 0x00, 0x00, 0x00,
  0x00, 0x00, 0x00, 0x02, 0x18, 0x01, 0x00, 0x00, 0x9c, 0xfc, 0xff, 0xff,
  0x08, 0x00, 0x00, 0x00, 0x88, 0x00, 0x00, 0x00, 0x10, 0x00, 0x00, 0x00,
  0x00, 0x00, 0x00, 0x00, 0x00, 0x00, 0x00, 0x00, 0x00, 0x00, 0x00, 0x00,
  0x00, 0x00, 0x00, 0x00, 0x00, 0x00, 0x00, 0x00, 0x00, 0x00, 0x00, 0x00,
  0x00, 0x00, 0x00, 0x00, 0x00, 0x00, 0x00, 0x00, 0x00, 0x00, 0x00, 0x00,
  0x00, 0x00, 0x00, 0x00, 0x00, 0x00, 0x00, 0x00, 0x00, 0x00, 0x00, 0x00,
  0x00, 0x00, 0x00, 0x00, 0x00, 0x00, 0x00, 0x00, 0x00, 0x00, 0x00, 0x00,
  0x00, 0x00, 0x00, 0x00, 0x00, 0x00, 0x00, 0x00, 0x00, 0x00, 0x00, 0x00,
  0x00, 0x00, 0x00, 0x00, 0x00, 0x00, 0x00, 0x00, 0x00, 0x00, 0x00, 0x00,
  0x00, 0x00, 0x00, 0x00, 0x00, 0x00, 0x00, 0x00, 0x00, 0x00, 0x00, 0x00,
  0x00, 0x00, 0x00, 0x00, 0x00, 0x00, 0x00, 0x00, 0x00, 0x00, 0x00, 0x00,
  0x00, 0x00, 0x00, 0x00, 0x00, 0x00, 0x00, 0x00, 0x00, 0x00, 0x00, 0x00,
  0x00, 0x00, 0x00, 0x00, 0x00, 0x00, 0x00, 0x00, 0x10, 0x00, 0x00, 0x00,
  0x88, 0x98, 0xf6, 0x37, 0xef, 0x1c, 0xdc, 0x37, 0x8e, 0xf3, 0xb0, 0x37,
  0xc6, 0x2d, 0x08, 0x38, 0x4a, 0x7a, 0xb1, 0x37, 0x56, 0xab, 0xac, 0x37,
  0xf4, 0xdf, 0xb3, 0x37, 0xa7, 0x01, 0xe1, 0x37, 0x52, 0xe5, 0xaa, 0x37,
  0x1c, 0xd1, 0x17, 0x38, 0x16, 0x8e, 0xbb, 0x37, 0x54, 0x01, 0xe8, 0x37,
  0xa5, 0x70, 0xe4, 0x37, 0xf0, 0x89, 0x0c, 0x38, 0x8c, 0x6d, 0xfa, 0x37,
  0x3f, 0x0b, 0x0a, 0x38, 0x38, 0x00, 0x00, 0x00, 0x53, 0x69, 0x6e, 0x67,
  0x6c, 0x65, 0x53, 0x74, 0x72, 0x65, 0x61, 0x6d, 0x5f, 0x46, 0x6f, 0x76,
  0x65, 0x61, 0x2f, 0x71, 0x75, 0x61, 0x6e, 0x74, 0x5f, 0x63, 0x6f, 0x6e,
  0x76, 0x32, 0x64, 0x5f, 0x38, 0x2f, 0x42, 0x69, 0x61, 0x73, 0x41, 0x64,
  0x64, 0x2f, 0x52, 0x65, 0x61, 0x64, 0x56, 0x61, 0x72, 0x69, 0x61, 0x62,
  0x6c, 0x65, 0x4f, 0x70, 0x00, 0x00, 0x00, 0x00, 0x01, 0x00, 0x00, 0x00,
  0x10, 0x00, 0x00, 0x00, 0x76, 0xfe, 0xff, 0xff, 0x00, 0x00, 0x00, 0x01,
  0x14, 0x00, 0x00, 0x00, 0xe8, 0x00, 0x00, 0x00, 0x03, 0x00, 0x00, 0x00,
  0x00, 0x00, 0x00, 0x09, 0x5c, 0x01, 0x00, 0x00, 0xd4, 0xfd, 0xff, 0xff,
  0x08, 0x00, 0x00, 0x00, 0x8c, 0x00, 0x00, 0x00, 0x10, 0x00, 0x00, 0x00,
  0x00, 0x00, 0x00, 0x00, 0x00, 0x00, 0x00, 0x00, 0x00, 0x00, 0x00, 0x00,
  0x00, 0x00, 0x00, 0x00, 0x00, 0x00, 0x00, 0x00, 0x00, 0x00, 0x00, 0x00,
  0x00, 0x00, 0x00, 0x00, 0x00, 0x00, 0x00, 0x00, 0x00, 0x00, 0x00, 0x00,
  0x00, 0x00, 0x00, 0x00, 0x00, 0x00, 0x00, 0x00, 0x00, 0x00, 0x00, 0x00,
  0x00, 0x00, 0x00, 0x00, 0x00, 0x00, 0x00, 0x00, 0x00, 0x00, 0x00, 0x00,
  0x00, 0x00, 0x00, 0x00, 0x00, 0x00, 0x00, 0x00, 0x00, 0x00, 0x00, 0x00,
  0x00, 0x00, 0x00, 0x00, 0x00, 0x00, 0x00, 0x00, 0x00, 0x00, 0x00, 0x00,
  0x00, 0x00, 0x00, 0x00, 0x00, 0x00, 0x00, 0x00, 0x00, 0x00, 0x00, 0x00,
  0x00, 0x00, 0x00, 0x00, 0x00, 0x00, 0x00, 0x00, 0x00, 0x00, 0x00, 0x00,
  0x00, 0x00, 0x00, 0x00, 0x00, 0x00, 0x00, 0x00, 0x00, 0x00, 0x00, 0x00,
  0x00, 0x00, 0x00, 0x00, 0x00, 0x00, 0x00, 0x00, 0x00, 0x00, 0x00, 0x00,
  0x10, 0x00, 0x00, 0x00, 0xf0, 0xa1, 0xf5, 0x3b, 0xd2, 0x40, 0xdb, 0x3b,
  0x9a, 0x42, 0xb0, 0x3b, 0x98, 0xa5, 0x07, 0x3c, 0xd0, 0xc8, 0xb0, 0x3b,
  0xaa, 0xfe, 0xab, 0x3b, 0x14, 0x2c, 0xb3, 0x3b, 0xa5, 0x20, 0xe0, 0x3b,
  0x6d, 0x3a, 0xaa, 0x3b, 0x4b, 0x39, 0x17, 0x3c, 0x88, 0xd2, 0xba, 0x3b,
  0x53, 0x19, 0xe7, 0x3b, 0x34, 0x8c, 0xe3, 0x3b, 0x66, 0xfd, 0x0b, 0x3c,
  0x1e, 0x73, 0xf9, 0x3b, 0x33, 0x81, 0x09, 0x3c, 0x7b, 0x00, 0x00, 0x00,
  0x53, 0x69, 0x6e, 0x67, 0x6c, 0x65, 0x53, 0x74, 0x72, 0x65, 0x61, 0x6d,
  0x5f, 0x46, 0x6f, 0x76, 0x65, 0x61, 0x2f, 0x71, 0x75, 0x61, 0x6e, 0x74,
  0x5f, 0x63, 0x6f, 0x6e, 0x76, 0x32, 0x64, 0x5f, 0x38, 0x2f, 0x43, 0x6f,
  0x6e, 0x76, 0x32, 0x44, 0x3b, 0x53, 0x69, 0x6e, 0x67, 0x6c, 0x65, 0x53,
  0x74, 0x72, 0x65, 0x61, 0x6d, 0x5f, 0x46, 0x6f, 0x76, 0x65, 0x61, 0x2f,
  0x71, 0x75, 0x61, 0x6e, 0x74, 0x5f, 0x63, 0x6f, 0x6e, 0x76, 0x32, 0x64,
  0x5f, 0x38, 0x2f, 0x4c, 0x61, 0x73, 0x74, 0x56, 0x61, 0x6c, 0x75, 0x65,
  0x51, 0x75, 0x61, 0x6e, 0x74, 0x2f, 0x46, 0x61, 0x6b, 0x65, 0x51, 0x75,
  0x61, 0x6e, 0x74, 0x57, 0x69, 0x74, 0x68, 0x4d, 0x69, 0x6e, 0x4d, 0x61,
  0x78, 0x56, 0x61, 0x72, 0x73, 0x50, 0x65, 0x72, 0x43, 0x68, 0x61, 0x6e,
  0x6e, 0x65, 0x6c, 0x00, 0x04, 0x00, 0x00, 0x00, 0x10, 0x00, 0x00, 0x00,
  0x03, 0x00, 0x00, 0x00, 0x03, 0x00, 0x00, 0x00, 0x01, 0x00, 0x00, 0x00,
  0x00, 0x00, 0x16, 0x00, 0x1c, 0x00, 0x18, 0x00, 0x17, 0x00, 0x10, 0x00,
  0x0c, 0x00, 0x08, 0x00, 0x00, 0x00, 0x00, 0x00, 0x00, 0x00, 0x07, 0x00,
  0x16, 0x00, 0x00, 0x00, 0x00, 0x00, 0x00, 0x01, 0x18, 0x00, 0x00, 0x00,
  0x18, 0x00, 0x00, 0x00, 0x02, 0x00, 0x00, 0x00, 0x00, 0x00, 0x00, 0x02,
  0x3c, 0x00, 0x00, 0x00, 0x04, 0x00, 0x04, 0x00, 0x04, 0x00, 0x00, 0x00,
  0x28, 0x00, 0x00, 0x00, 0x53, 0x69, 0x6e, 0x67, 0x6c, 0x65, 0x53, 0x74,
  0x72, 0x65, 0x61, 0x6d, 0x5f, 0x46, 0x6f, 0x76, 0x65, 0x61, 0x2f, 0x71,
  0x75, 0x61, 0x6e, 0x74, 0x5f, 0x66, 0x6c, 0x61, 0x74, 0x74, 0x65, 0x6e,
  0x5f, 0x34, 0x2f, 0x43, 0x6f, 0x6e, 0x73, 0x74, 0x00, 0x00, 0x00, 0x00,
  0x01, 0x00, 0x00, 0x00, 0x02, 0x00, 0x00, 0x00, 0x00, 0x00, 0x16, 0x00,
  0x20, 0x00, 0x1c, 0x00, 0x1b, 0x00, 0x14, 0x00, 0x10, 0x00, 0x0c, 0x00,
  0x00, 0x00, 0x00, 0x00, 0x08, 0x00, 0x07, 0x00, 0x16, 0x00, 0x00, 0x00,
  0x00, 0x00, 0x00, 0x01, 0x18, 0x00, 0x00, 0x00, 0x34, 0x00, 0x00, 0x00,
  0x54, 0x00, 0x00, 0x00, 0x01, 0x00, 0x00, 0x00, 0x00, 0x00, 0x00, 0x09,
  0x6c, 0x00, 0x00, 0x00, 0x04, 0x00, 0x00, 0x00, 0xff, 0xff, 0xff, 0xff,
  0x20, 0x00, 0x00, 0x00, 0x20, 0x00, 0x00, 0x00, 0x01, 0x00, 0x00, 0x00,
  0x0c, 0x00, 0x0c, 0x00, 0x00, 0x00, 0x00, 0x00, 0x08, 0x00, 0x04, 0x00,
  0x0c, 0x00, 0x00, 0x00, 0x08, 0x00, 0x00, 0x00, 0x14, 0x00, 0x00, 0x00,
  0x01, 0x00, 0x00, 0x00, 0x80, 0xff, 0xff, 0xff, 0xff, 0xff, 0xff, 0xff,
  0x00, 0x00, 0x00, 0x00, 0x01, 0x00, 0x00, 0x00, 0x81, 0x80, 0x80, 0x3b,
  0x1d, 0x00, 0x00, 0x00, 0x73, 0x65, 0x72, 0x76, 0x69, 0x6e, 0x67, 0x5f,
  0x64, 0x65, 0x66, 0x61, 0x75, 0x6c, 0x74, 0x5f, 0x66, 0x6f, 0x76, 0x65,
  0x61, 0x5f, 0x69, 0x6e, 0x70, 0x75, 0x74, 0x3a, 0x30, 0x00, 0x00, 0x00,
  0x04, 0x00, 0x00, 0x00, 0x01, 0x00, 0x00, 0x00, 0x20, 0x00, 0x00, 0x00,
  0x20, 0x00, 0x00, 0x00, 0x01, 0x00, 0x00, 0x00, 0x05, 0x00, 0x00, 0x00,
  0x68, 0x00, 0x00, 0x00, 0x48, 0x00, 0x00, 0x00, 0x38, 0x00, 0x00, 0x00,
  0x18, 0x00, 0x00, 0x00, 0x04, 0x00, 0x00, 0x00, 0xb8, 0xff, 0xff, 0xff,
  0x19, 0x00, 0x00, 0x00, 0x02, 0x00, 0x00, 0x00, 0x00, 0x00, 0x00, 0x19,
  0xc8, 0xff, 0xff, 0xff, 0x09, 0x00, 0x00, 0x00, 0x04, 0x00, 0x00, 0x00,
  0x00, 0x00, 0x00, 0x09, 0x0c, 0x00, 0x0c, 0x00, 0x0b, 0x00, 0x00, 0x00,
  0x00, 0x00, 0x04, 0x00, 0x0c, 0x00, 0x00, 0x00, 0x16, 0x00, 0x00, 0x00,
  0x00, 0x00, 0x00, 0x16, 0xf0, 0xff, 0xff, 0xff, 0x11, 0x00, 0x00, 0x00,
  0x02, 0x00, 0x00, 0x00, 0x00, 0x00, 0x00, 0x11, 0x0c, 0x00, 0x10, 0x00,
  0x0f, 0x00, 0x00, 0x00, 0x08, 0x00, 0x04, 0x00, 0x0c, 0x00, 0x00, 0x00,
  0x03, 0x00, 0x00, 0x00, 0x03, 0x00, 0x00, 0x00, 0x00, 0x00, 0x00, 0x03
};
unsigned int fold5_model_len = 14760;

#endif
